{"W": 1, "N": 2, "2": 3, "chainz": 4, "I": 5, "1": 6, "R": 7, "ta@@": 8, "u@@": 9, "heed": 10, "e@@": 11, "pps": 12, "C": 13, "atlanta": 14, "M": 15, "tity": 16, "boi": 17, ",": 18, "dren@@": 19, "ch@@": 20, "god": 21, "G": 22, "playaz": 23, "circle": 24, "A": 25, "rap": 26, "or": 27, "go": 28, "to": 29, "the": 30, "league": 31, "pretty": 32, "girls": 33, "like": 34, "trap": 35, "music": 36, "collegrove": 37, "b": 38, "o": 39, "a": 40, "t": 41, "s": 42, "ii": 43, "me": 44, "time": 45, "based": 46, "on": 47, "r": 48, "u": 49, "story": 50, "Y": 51, "1997": 52, "21": 53, "savage": 54, "she@@": 55, "yaa": 56, "bin": 57, "abraham": 58, "joseph": 59, "mode": 60, "i": 61, "am": 62, "was": 63, "without": 64, "warning": 65, "issa": 66, "album": 67, "20@@": 68, "13": 69, "2pac": 70, "3": 71, "tu@@": 72, "pac": 73, "a@@": 74, "mar@@": 75, "shakur": 76, "oakland": 77, "makaveli": 78, "mc": 79, "new": 80, "york": 81, "digital": 82, "underground": 83, "outlawz": 84, "thug": 85, "life": 86, "pacs": 87, "loyal": 88, "game": 89, "better": 90, "dayz": 91, "until": 92, "end": 93, "of": 94, "still": 95, "down": 96, "remember": 97, "don": 98, "killuminati": 99, "7": 100, "day": 101, "theory": 102, "all": 103, "eyez": 104, "against": 105, "world": 106, "strictly": 107, "4": 108, "my": 109, "n": 110, "g": 111, "z": 112, "2pacalypse": 113, "now": 114, "1987": 115, "50": 116, "cent": 117, "curtis": 118, "james": 119, "jackson": 120, "iii": 121, "city": 122, "ferrari": 123, "f": 124, "unit": 125, "animal": 126, "ambition": 127, "before": 128, "self": 129, "destruct": 130, "massacre": 131, "get": 132, "rich": 133, "die": 134, "tryin": 135, "1996": 136, "6ix9ine": 137, "5": 138, "daniel": 139, "her@@": 140, "nan@@": 141, "dez": 142, "tekashi69": 143, "wallah": 144, "dan": 145, "scum@@": 146, "gang": 147, "tatt@@": 148, "le@@": 149, "tales": 150, "dummy": 151, "boy": 152, "2012": 153, "aesop": 154, "rock": 155, "6": 156, "ian": 157, "mat@@": 158, "thias": 159, "ba@@": 160, "vitz": 161, "weatherman": 162, "un@@": 163, "cluded": 164, "hail": 165, "mary": 166, "mall@@": 167, "malibu": 168, "ken": 169, "impossible": 170, "kid": 171, "skele@@": 172, "thon": 173, "none": 174, "shall": 175, "pass": 176, "bazooka": 177, "tooth": 178, "labor": 179, "days": 180, "float": 181, "for": 182, "earth@@": 183, "worms": 184, "andy": 185, "mine@@": 186, "andrew": 187, "aaron": 188, "c": 189, "lite": 190, "116": 191, "clique": 192, "uncomfortable": 193, "heroes": 194, "sale": 195, "2001": 196, "asap": 197, "rocky": 198, "8": 199, "rakim": 200, "athe@@": 201, "la@@": 202, "ston": 203, "may@@": 204, "ers": 205, "mob": 206, "testing": 207, "at": 208, "long": 209, "last": 210, "live": 211, "2007": 212, "9": 213, "bobby": 214, "ray": 215, "simmons": 216, "jr": 217, "hustle": 218, "som@@": 219, "nia": 220, "south@@": 221, "matic": 222, "na@@": 223, "ga": 224, "upside": 225, "ether": 226, "luxury": 227, "strange": 228, "clouds": 229, "presents": 230, "adventures": 231, "2006": 232, "big": 233, "10": 234, "antwan": 235, "andre": 236, "patton": 237, "outkast": 238, "boo@@": 239, "mi@@": 240, "verse": 241, "grams": 242, "vicious": 243, "lies": 244, "and": 245, "dangerous": 246, "rumors": 247, "sir": 248, "lu@@": 249, "cious": 250, "left": 251, "foot": 252, "son": 253, "chico": 254, "dusty": 255, "1992": 256, "daddy": 257, "kane": 258, "11": 259, "antonio": 260, "hardy": 261, "d": 262, "k": 263, "dark": 264, "gable": 265, "king": 266, "asiatic": 267, "nobodys": 268, "equal": 269, "black@@": 270, "anova": 271, "count": 272, "ma@@": 273, "cula": 274, "juice": 275, "crew": 276, "veter@@": 277, "an@@": 278, "daddys": 279, "home": 280, "looks": 281, "job": 282, "prince": 283, "darkness": 284, "taste": 285, "chocolate": 286, "its": 287, "thing": 288, "l": 289, "12": 290, "lamont": 291, "co@@": 292, "leman": 293, "corleone": 294, "children": 295, "corn": 296, "diggin": 297, "in": 298, "crates": 299, "danger": 300, "zone": 301, "return": 302, "devils": 303, "139": 304, "lenox": 305, "picture": 306, "life@@": 307, "sty@@": 308, "lez": 309, "ov": 310, "da": 311, "poor": 312, "sean": 313, "michael": 314, "leonard": 315, "and@@": 316, "er@@": 317, "so": 318, "detroit": 319, "twenty@@": 320, "88": 321, "double": 322, "nothing": 323, "decided": 324, "sky": 325, "paradise": 326, "hall": 327, "fame": 328, "finally": 329, "famous": 330, "busta": 331, "rhymes": 332, "14": 333, "trevor": 334, "george": 335, "smith": 336, "leaders": 337, "school": 338, "flipmode": 339, "squad": 340, "year": 341, "dragon": 342, "back": 343, "bang": 344, "it": 345, "aint": 346, "safe": 347, "no": 348, "more": 349, "genesis": 350, "anarchy": 351, "e": 352, "extinction": 353, "level": 354, "event": 355, "final": 356, "front": 357, "when": 358, "disaster": 359, "strikes": 360, "coming": 361, "1989": 362, "cardi": 363, "15": 364, "bel@@": 365, "calis": 366, "len@@": 367, "is": 368, "alman@@": 369, "zar": 370, "invasion": 371, "privacy": 372, "2015": 373, "chamillionaire": 374, "16": 375, "hakeem": 376, "te@@": 377, "da@@": 378, "yo": 379, "ser@@": 380, "i@@": 381, "ki": 382, "houston": 383, "color": 384, "changin": 385, "click": 386, "ultimate": 387, "victory": 388, "sound": 389, "revenge": 390, "chief": 391, "keef": 392, "17": 393, "keith": 394, "far@@": 395, "re@@": 396, "lle": 397, "zart": 398, "chicago": 399, "sosa": 400, "glo": 401, "dedication": 402, "part": 403, "2011": 404, "childish": 405, "gambino": 406, "18": 407, "donald": 408, "mck@@": 409, "in@@": 410, "ley": 411, "glover": 412, "mc@@": 413, "dj": 414, "20": 415, "awaken": 416, "love": 417, "because": 418, "internet": 419, "camp": 420, "common": 421, "19": 422, "lonnie": 423, "ra@@": 424, "shid": 425, "lynn": 426, "sense": 427, "august": 428, "greene": 429, "cocaine": 430, "80s": 431, "soul@@": 432, "quar@@": 433, "ians": 434, "let": 435, "black": 436, "america": 437, "again": 438, "smiling": 439, "dreamer": 440, "believer": 441, "universal": 442, "mind": 443, "control": 444, "finding": 445, "forever": 446, "be": 447, "electric": 448, "circus": 449, "water": 450, "one": 451, "itll": 452, "make": 453, "resurrection": 454, "can": 455, "borrow": 456, "dollar": 457, "1991": 458, "denzel": 459, "curry": 460, "rae": 461, "miami": 462, "aquarius@@": 463, "killa": 464, "raven": 465, "miyagi": 466, "zel@@": 467, "tron": 468, "billion": 469, "metal": 470, "terrorist": 471, "denny": 472, "cascade": 473, "zel": 474, "raider": 475, "klan": 476, "c9": 477, "unlocked": 478, "zuu": 479, "13@@": 480, "oo": 481, "imperial": 482, "nostalgic": 483, "64": 484, "2009": 485, "diddy": 486, "john": 487, "combs": 488, "puff": 489, "puffy": 490, "brother": 491, "dirty": 492, "money": 493, "press": 494, "play": 495, "saga": 496, "continues": 497, "way": 498, "out": 499, "1990": 500, "dmx": 501, "22": 502, "earl": 503, "man": 504, "x": 505, "murder": 506, "inc": 507, "ruff": 508, "ryders": 509, "redemption": 510, "beast": 511, "undisputed": 512, "dog": 513, "grand": 514, "champ": 515, "great": 516, "depression": 517, "then": 518, "there": 519, "flesh": 520, "blood": 521, "hell": 522, "hot": 523, "dr": 524, "dre": 525, "23": 526, "ro@@": 527, "melle": 528, "young": 529, "los": 530, "angeles": 531, "brick@@": 532, "hard": 533, "mechanic": 534, "w": 535, "class": 536, "wreckin": 537, "cru": 538, "compton": 539, "chronic": 540, "1985": 541, "drake": 542, "24": 543, "au@@": 544, "bre@@": 545, "y": 546, "graham": 547, "toronto": 548, "champagne": 549, "papi": 550, "drizzy": 551, "scorpion": 552, "views": 553, "same": 554, "take": 555, "care": 556, "thank": 557, "later": 558, "40": 559, "25": 560, "stevens": 561, "revenue": 562, "retrievin": 563, "overtime": 564, "shift": 565, "night": 566, "ball": 567, "street": 568, "journal": 569, "ghetto": 570, "report": 571, "card": 572, "breakin": 573, "news": 574, "grit": 575, "grind": 576, "loyalty": 577, "betrayal": 578, "charlie": 579, "blueprint": 580, "made": 581, "millionaire": 582, "element": 583, "surprise": 584, "tha": 585, "major": 586, "federal": 587, "1986": 588, "sweatshirt": 589, "26": 590, "thebe": 591, "ner@@": 592, "k@@": 593, "go@@": 594, "sit@@": 595, "si@@": 596, "le": 597, "sly": 598, "tendencies": 599, "rando@@": 600, "m@@": 601, "dude": 602, "odd": 603, "future": 604, "dor@@": 605, "dont": 606, "shit": 607, "outside": 608, "some": 609, "songs": 610, "2008": 611, "elzhi": 612, "27": 613, "jason": 614, "powers": 615, "slum": 616, "village": 617, "lead": 618, "poison": 619, "pre@@": 620, "face": 621, "1998": 622, "eminem": 623, "28": 624, "marshall": 625, "bruce": 626, "mathers": 627, "slim": 628, "shady": 629, "m": 630, "bad": 631, "meets": 632, "evil": 633, "d12": 634, "murdered": 635, "by": 636, "kamikaze": 637, "revival": 638, "lp": 639, "recovery": 640, "relapse": 641, "encore": 642, "show": 643, "infinite": 644, "1988": 645, "everlast": 646, "29": 647, "erik": 648, "francis": 649, "s@@": 650, "chro@@": 651, "dy": 652, "whitey": 653, "ford": 654, "house": 655, "pain": 656, "la": 657, "coka": 658, "nostra": 659, "fords": 660, "acoustic": 661, "ungrateful": 662, "living": 663, "war": 664, "ghost": 665, "white": 666, "trash": 667, "beautiful": 668, "eat": 669, "whiteys": 670, "sings": 671, "blues": 672, "everlasting": 673, "fabolous": 674, "30": 675, "david": 676, "sport": 677, "family": 678, "summertime": 679, "shootout": 680, "coldest": 681, "summer": 682, "ever": 683, "og": 684, "project": 685, "lo@@": 686, "sos": 687, "from": 688, "nothin": 689, "somethin": 690, "real": 691, "talk": 692, "dreams": 693, "flo": 694, "rida": 695, "31": 696, "tra@@": 697, "mar": 698, "ce@@": 699, "di@@": 700, "lla@@": 701, "rd": 702, "wild": 703, "ones": 704, "only": 705, "mail": 706, "sunday": 707, "2000": 708, "freddie": 709, "gibbs": 710, "32": 711, "fre@@": 712, "dri@@": 713, "ck": 714, "jamel": 715, "tip@@": 716, "ton": 717, "gary": 718, "mad@@": 719, "alfredo": 720, "bandana": 721, "you": 722, "2@@": 723, "wi@@": 724, "ce": 725, "shadow": 726, "doubt": 727, "pinata": 728, "es@@": 729, "gn": 730, "2004": 731, "french": 732, "montana": 733, "33": 734, "kar@@": 735, "im": 736, "har@@": 737, "bou@@": 738, "ch": 739, "coke": 740, "boys": 741, "jungle": 742, "rules": 743, "excuse": 744, "2002": 745, "ghostface": 746, "killah": 747, "34": 748, "dennis": 749, "coles": 750, "ghost@@": 751, "dini": 752, "ironman": 753, "tony": 754, "starks": 755, "star@@": 756, "ky": 757, "toney": 758, "p": 759, "tone": 760, "wu": 761, "tang": 762, "clan": 763, "theodore": 764, "c@@": 765, "zar@@": 766, "supreme": 767, "clientele": 768, "bulletproof": 769, "wallets": 770, "fishscale": 771, "fish": 772, "doe": 773, "rehab": 774, "wizard": 775, "poetry": 776, "emer@@": 777, "ald": 778, "apollo": 779, "kids": 780, "twelve": 781, "reasons": 782, "seasons": 783, "killa@@": 784, "hs": 785, "gza": 786, "35": 787, "gri@@": 788, "genius": 789, "words": 790, "liquid": 791, "swords": 792, "beneath": 793, "surface": 794, "legend": 795, "sword": 796, "pro": 797, "tools": 798, "ice": 799, "cube": 800, "36": 801, "o@@": 802, "shea": 803, "lench": 804, "westside": 805, "connection": 806, "amerikkkas": 807, "most": 808, "wanted": 809, "death": 810, "certificate": 811, "predator": 812, "lethal": 813, "injection": 814, "peace": 815, "vol": 816, "disc": 817, "laugh": 818, "cry": 819, "raw": 820, "footage": 821, "west": 822, "everythangs": 823, "corrupt": 824, "iggy": 825, "azalea": 826, "37": 827, "meth@@": 828, "yst": 829, "ame@@": 830, "lia": 831, "kelly": 832, "classic": 833, "defense": 834, "an": 835, "era": 836, "inspectah": 837, "deck": 838, "38": 839, "richard": 840, "hunter": 841, "rollie": 842, "fingers": 843, "fifth": 844, "rebel": 845, "ins": 846, "cyn@@": 847, "manife@@": 848, "sto": 849, "resident": 850, "patient": 851, "movement": 852, "uncontrolled": 853, "substance": 854, "j": 855, "cole": 856, "39": 857, "jermaine": 858, "raleigh": 859, "therapist": 860, "hollywood": 861, "kill": 862, "edward": 863, "sideline": 864, "born": 865, "sinner": 866, "2014": 867, "forest": 868, "hills": 869, "drive": 870, "your": 871, "kod": 872, "fall": 873, "off": 874, "2020": 875, "jay": 876, "shawn": 877, "corey": 878, "carter": 879, "administration": 880, "jigga": 881, "hova": 882, "el": 883, "presi@@": 884, "dente": 885, "carters": 886, "reasonable": 887, "lifetime": 888, "knock": 889, "times": 890, "dynasty": 891, "roc": 892, "familia": 893, "blue@@": 894, "prin@@": 895, "t@@": 896, "gift": 897, "curse": 898, "kingdom": 899, "come": 900, "american": 901, "gangster": 902, "mag@@": 903, "na": 904, "car@@": 905, "ta": 906, "holy": 907, "grail": 908, "44": 909, "jeezy": 910, "41": 911, "wayne": 912, "jen@@": 913, "kins": 914, "lil": 915, "snowman": 916, "boyz": 917, "hood": 918, "usda": 919, "lets": 920, "motivation": 921, "101": 922, "inspiration": 923, "recession": 924, "tm": 925, "103": 926, "hust@@": 927, "ler@@": 928, "seen": 929, "auto@@": 930, "biography": 931, "church": 932, "these": 933, "streets": 934, "pressure": 935, "tm@@": 936, "104": 937, "jid": 938, "42": 939, "de@@": 940, "stin": 941, "choice": 942, "route": 943, "spillage": 944, "never": 945, "dicaprio": 946, "2010": 947, "wrld": 948, "43": 949, "ja@@": 950, "rad": 951, "anthony": 952, "hig@@": 953, "gins": 954, "juice@@": 955, "thekidd": 956, "goodbye": 957, "good": 958, "riddance": 959, "drugs": 960, "with": 961, "race": 962, "legends": 963, "outsiders": 964, "kanye": 965, "mari": 966, "yeezy": 967, "ye": 968, "rs": 969, "see": 970, "ghosts": 971, "service": 972, "choir": 973, "college": 974, "dropout": 975, "late": 976, "registration": 977, "graduation": 978, "808s": 979, "heartbreak": 980, "twisted": 981, "fantasy": 982, "watch": 983, "throne": 984, "yeezus": 985, "pablo": 986, "jesus": 987, "don@@": 988, "child": 989, "kardinal": 990, "offishall": 991, "45": 992, "drew": 993, "row": 994, "on@@": 995, "tar@@": 996, "io": 997, "artists": 998, "bull@@": 999, "ying": 1000, "eye": 1001, "quest": 1002, "fire": 1003, "fire@@": 1004, "starter": 1005, "glory": 1006, "not": 1007, "kardi": 1008, "gras": 1009, "clash": 1010, "pick": 1011, "1994": 1012, "kendrick": 1013, "lamar": 1014, "46": 1015, "duck@@": 1016, "worth": 1017, "dot": 1018, "kung": 1019, "fu": 1020, "kenny": 1021, "cornrow": 1022, "hippy": 1023, "section": 1024, "80": 1025, "pimp": 1026, "butterfly": 1027, "damn": 1028, "cudi": 1029, "47": 1030, "scott": 1031, "mon": 1032, "se@@": 1033, "gur@@": 1034, "mescudi": 1035, "cleveland": 1036, "w@@": 1037, "z@@": 1038, "moon": 1039, "mr": 1040, "rager": 1041, "indi@@": 1042, "cud": 1043, "satellite": 1044, "flight": 1045, "journey": 1046, "mother": 1047, "speedin": 1048, "bullet": 1049, "heaven": 1050, "passion": 1051, "demon": 1052, "slayin": 1053, "enter@@": 1054, "galactic": 1055, "2003": 1056, "kodak": 1057, "48": 1058, "die@@": 1059, "uson": 1060, "octave": 1061, "bill": 1062, "ka@@": 1063, "han": 1064, "blanco": 1065, "painting": 1066, "pictures": 1067, "dying": 1068, "kool": 1069, "4@@": 1070, "nathaniel": 1071, "thomas": 1072, "wilson": 1073, "giancana": 1074, "respect": 1075, "riches": 1076, "royalty": 1077, "roots": 1078, "krs": 1079, "lawrence": 1080, "parker": 1081, "techa": 1082, "blastmaster": 1083, "joe": 1084, "kra@@": 1085, "sh": 1086, "temple": 1087, "hip": 1088, "hop": 1089, "boogie": 1090, "productions": 1091, "group": 1092, "therapy": 1093, "boom": 1094, "bap": 1095, "got": 1096, "next": 1097, "sneak": 1098, "attack": 1099, "spiritual": 1100, "minded": 1101, "kri@@": 1102, "styles": 1103, "keep": 1104, "right": 1105, "emceein": 1106, "maximum": 1107, "strength": 1108, "bdp": 1109, "forget": 1110, "hear": 1111, "this": 1112, "light": 1113, "first": 1114, "edition": 1115, "lauryn": 1116, "hill": 1117, "51": 1118, "no@@": 1119, "elle": 1120, "newark": 1121, "fugees": 1122, "misedu@@": 1123, "cation": 1124, "lecrae": 1125, "52": 1126, "deva@@": 1127, "ughn": 1128, "moore": 1129, "after": 1130, "stops": 1131, "overdose": 1132, "gravity": 1133, "anomaly": 1134, "things": 1135, "work": 1136, "together": 1137, "say": 1138, "amen": 1139, "zaytoven": 1140, "stor@@": 1141, "ation": 1142, "peep": 1143, "5@@": 1144, "gu@@": 1145, "sta@@": 1146, "v": 1147, "elijah": 1148, "ah@@": 1149, "sche@@": 1150, "posse": 1151, "over": 1152, "youre": 1153, "sober": 1154, "pt": 1155, "54": 1156, "dwayne": 1157, "orleans": 1158, "tunechi": 1159, "weezy": 1160, "baby": 1161, "cash": 1162, "millionaires": 1163, "sqad": 1164, "up": 1165, "block": 1166, "lights": 1167, "500": 1168, "degreez": 1169, "rebirth": 1170, "human": 1171, "being": 1172, "iv": 1173, "free": 1174, "funeral": 1175, "1995": 1176, "ll": 1177, "cool": 1178, "55": 1179, "todd": 1180, "radio": 1181, "bigger": 1182, "ffer": 1183, "walking": 1184, "panther": 1185, "mama": 1186, "said": 1187, "shots": 1188, "dome": 1189, "phenomenon": 1190, "definition": 1191, "exit": 1192, "authentic": 1193, "1984": 1194, "ludacris": 1195, "56": 1196, "christopher": 1197, "brian": 1198, "bridges": 1199, "chris": 1200, "lova": 1201, "luda": 1202, "incog@@": 1203, "negro": 1204, "word": 1205, "mouf": 1206, "chicken": 1207, "beer": 1208, "red": 1209, "district": 1210, "release": 1211, "theater": 1212, "battle": 1213, "sexes": 1214, "ludaversal": 1215, "lupe": 1216, "fiasco": 1217, "57": 1218, "wa@@": 1219, "sal@@": 1220, "muhammad": 1221, "co": 1222, "chess": 1223, "club": 1224, "japanese": 1225, "cartoon": 1226, "fiascos": 1227, "food": 1228, "liquor": 1229, "lasers": 1230, "tetsuo": 1231, "youth": 1232, "drogas": 1233, "wave": 1234, "masta": 1235, "ace": 1236, "58": 1237, "duval": 1238, "clear": 1239, "ase": 1240, "ca": 1241, "ret@@": 1242, "sam": 1243, "crooklyn": 1244, "dodgers": 1245, "incorporated": 1246, "look": 1247, "around": 1248, "slaughtahouse": 1249, "sittin": 1250, "chrome": 1251, "disposable": 1252, "arts": 1253, "ma": 1254, "doom": 1255, "yvonne": 1256, "falling": 1257, "season": 1258, "59": 1259, "el@@": 1260, "gin": 1261, "turner": 1262, "irief": 1263, "noodles": 1264, "high": 1265, "date": 1266, "brooklyn": 1267, "selling": 1268, "soul": 1269, "method": 1270, "60": 1271, "clifford": 1272, "johnny": 1273, "blaze": 1274, "tical": 1275, "judgement": 1276, "0": 1277, "prequel": 1278, "meth": 1279, "lab": 1280, "lithium": 1281, "mf": 1282, "61": 1283, "du@@": 1284, "mile": 1285, "ze@@": 1286, "gee@@": 1287, "ah": 1288, "g@@": 1289, "hi@@": 1290, "dra": 1291, "vi@@": 1292, "tor": 1293, "vaughn": 1294, "jj": 1295, "md": 1296, "gori@@": 1297, "llaz": 1298, "monsta": 1299, "island": 1300, "czars": 1301, "villain": 1302, "mm": 1303, "venomous": 1304, "va@@": 1305, "deville": 1306, "leader": 1307, "operation": 1308, "doomsday": 1309, "missy": 1310, "elliott": 1311, "62": 1312, "melissa": 1313, "ar@@": 1314, "ne@@": 1315, "tte": 1316, "norfolk": 1317, "misdemeanor": 1318, "supa": 1319, "dupa": 1320, "fly": 1321, "miss": 1322, "addictive": 1323, "under": 1324, "construction": 1325, "test": 1326, "cookbook": 1327, "nas": 1328, "63": 1329, "nasir": 1330, "ol@@": 1331, "dar@@": 1332, "jones": 1333, "escobar": 1334, "nasty": 1335, "firm": 1336, "illmatic": 1337, "written": 1338, "nastradamus": 1339, "still@@": 1340, "gods": 1341, "disciple": 1342, "dead": 1343, "titled": 1344, "kings": 1345, "disease": 1346, "nicki": 1347, "minaj": 1348, "onika": 1349, "tanya": 1350, "mara@@": 1351, "pink": 1352, "friday": 1353, "roman": 1354, "reloaded": 1355, "pinkprint": 1356, "queen": 1357, "obie": 1358, "trice": 1359, "65": 1360, "cheers": 1361, "second": 1362, "rounds": 1363, "bottoms": 1364, "hangover": 1365, "pitbull": 1366, "66": 1367, "armando": 1368, "christian": 1369, "perez": 1370, "305": 1371, "worldwide": 1372, "mari@@": 1373, "boat@@": 1374, "lift": 1375, "starring": 1376, "rebe@@": 1377, "lution": 1378, "planet": 1379, "pit": 1380, "global": 1381, "warming": 1382, "glo@@": 1383, "li@@": 1384, "zation": 1385, "dale": 1386, "climate": 1387, "change": 1388, "liber@@": 1389, "tad": 1390, "pusha": 1391, "6@@": 1392, "terrence": 1393, "lev@@": 1394, "thor@@": 1395, "n@@": 1396, "virginia": 1397, "beach": 1398, "terra@@": 1399, "clipse": 1400, "re": 1401, "name": 1402, "push": 1403, "darkest": 1404, "dawn": 1405, "de": 1406, "daytona": 1407, "1993": 1408, "latifah": 1409, "68": 1410, "dana": 1411, "ela@@": 1412, "ine": 1413, "owens": 1414, "mass": 1415, "native": 1416, "tongues": 1417, "nature": 1418, "sista": 1419, "reign": 1420, "order": 1421, "court": 1422, "v@@": 1423, "lin": 1424, "persona": 1425, "rugged": 1426, "69": 1427, "burn": 1428, "are": 1429, "raekwon": 1430, "70": 1431, "woods": 1432, "lex": 1433, "diamonds": 1434, "chef": 1435, "sha": 1436, "built": 1437, "cuban": 1438, "linx": 1439, "im@@": 1440, "mobi@@": 1441, "larity": 1442, "diamond": 1443, "shaolin": 1444, "vs": 1445, "international": 1446, "luxurious": 1447, "art": 1448, "redman": 1449, "71": 1450, "reginald": 1451, "noble": 1452, "doc": 1453, "funk": 1454, "doctor": 1455, "spock": 1456, "dogg": 1457, "rum": 1458, "ddy": 1459, "did@@": 1460, "ent": 1461, "blue": 1462, "fugitive": 1463, "fa@@": 1464, "stic": 1465, "reggie": 1466, "def": 1467, "whut": 1468, "thee": 1469, "dare": 1470, "iz": 1471, "darkside": 1472, "muddy": 1473, "waters": 1474, "docs": 1475, "malpractice": 1476, "gone": 1477, "mud@@": 1478, "rick": 1479, "ross": 1480, "72": 1481, "william": 1482, "roberts": 1483, "rozay": 1484, "boss": 1485, "renzel": 1486, "teflon": 1487, "port": 1488, "trilla": 1489, "deeper": 1490, "than": 1491, "forgives": 1492, "mastermind": 1493, "billionaire": 1494, "market": 1495, "rather": 1496, "richer": 1497, "ive": 1498, "been": 1499, "royce": 1500, "73": 1501, "ryan": 1502, "montgomery": 1503, "nickel": 1504, "nine": 1505, "slaughterhouse": 1506, "p@@": 1507, "rhyme": 1508, "certain": 1509, "independents": 1510, "success": 1511, "layers": 1512, "book": 1513, "alle@@": 1514, "gory": 1515, "rza": 1516, "74": 1517, "robert": 1518, "fitz@@": 1519, "gerald": 1520, "diggs": 1521, "rakeem": 1522, "steels": 1523, "ruler": 1524, "zig": 1525, "zag": 1526, "alla@@": 1527, "h@@": 1528, "delight": 1529, "abbo@@": 1530, "tt": 1531, "dynamite": 1532, "r@@": 1533, "zare@@": 1534, "ctor": 1535, "boulders": 1536, "banks": 1537, "stee@@": 1538, "lz": 1539, "grave@@": 1540, "dig@@": 1541, "gaz": 1542, "stereo": 1543, "birth": 1544, "digi": 1545, "snacks": 1546, "sage": 1547, "75": 1548, "paul": 1549, "providence": 1550, "x@@": 1551, "zan": 1552, "non": 1553, "prophets": 1554, "official": 1555, "intelligence": 1556, "supposed": 1557, "fun": 1558, "copper": 1559, "dance": 1560, "healthy": 1561, "distrust": 1562, "hope": 1563, "personal": 1564, "jour@@": 1565, "nals": 1566, "scarface": 1567, "76": 1568, "brad": 1569, "jordan": 1570, "ak@@": 1571, "sh@@": 1572, "en": 1573, "facemob": 1574, "creepy": 1575, "geto": 1576, "yours": 1577, "diary": 1578, "untouchable": 1579, "homies": 1580, "breed": 1581, "fix": 1582, "it@@": 1583, "us": 1584, "deeply": 1585, "rooted": 1586, "shai": 1587, "lin@@": 1588, "ne": 1589, "77": 1590, "phili@@": 1591, "delphia": 1592, "lyrical": 1593, "theology": 1594, "do@@": 1595, "ology": 1596, "attributes": 1597, "ez": 1598, "atonement": 1599, "solus": 1600, "christ@@": 1601, "slick": 1602, "7@@": 1603, "martin": 1604, "lloyd": 1605, "walters": 1606, "ricky": 1607, "rulers": 1608, "behind": 1609, "bars": 1610, "story@@": 1611, "telling": 1612, "snoop": 1613, "79": 1614, "calvin": 1615, "cor@@": 1616, "broadus": 1617, "snoo@@": 1618, "pa@@": 1619, "delic": 1620, "nigg@@": 1621, "ara@@": 1622, "chi": 1623, "sno@@": 1624, "op@@": 1625, "zilla": 1626, "nemo": 1627, "hoes": 1628, "213": 1629, "eastsidaz": 1630, "q@@": 1631, "dt": 1632, "doggystyle": 1633, "doggfather": 1634, "sold": 1635, "told": 1636, "limit": 1637, "top": 1638, "meal": 1639, "paid": 1640, "cost": 1641, "rhythm": 1642, "gangsta": 1643, "masterpiece": 1644, "carpet": 1645, "treatment": 1646, "ego": 1647, "trippin": 1648, "malice": 1649, "wonderland": 1650, "dog@@": 1651, "mentary": 1652, "reincarnated": 1653, "bush": 1654, "coolaid": 1655, "neva": 1656, "bible": 1657, "wanna": 1658, "harris": 1659, "tip": 1660, "bankroll": 1661, "mafia": 1662, "psc": 1663, "serious": 1664, "muzik": 1665, "urban": 1666, "paper": 1667, "trail": 1668, "mercy": 1669, "trouble": 1670, "heavy": 1671, "head": 1672, "paperwork": 1673, "dime": 1674, "1999": 1675, "talib": 1676, "kweli": 1677, "81": 1678, "star": 1679, "idle": 1680, "war@@": 1681, "ship": 1682, "reflection": 1683, "eternal": 1684, "quality": 1685, "struggle": 1686, "eardrum": 1687, "gutter": 1688, "rainbows": 1689, "prisoner": 1690, "conscious": 1691, "grav@@": 1692, "itas": 1693, "fuck": 1694, "silence": 1695, "tech": 1696, "n9ne": 1697, "82": 1698, "dontez": 1699, "yates": 1700, "kansas": 1701, "regime": 1702, "fear": 1703, "n9na": 1704, "storm": 1705, "special": 1706, "effects": 1707, "something": 1708, "else": 1709, "6s": 1710, "7s": 1711, "killer": 1712, "ever@@": 1713, "ready": 1714, "religion": 1715, "absolute": 1716, "power": 1717, "anghellic": 1718, "worst": 1719, "calm": 1720, "83": 1721, "jayceon": 1722, "terrell": 1723, "taylor": 1724, "documentary": 1725, "doctors": 1726, "advocate": 1727, "lax": 1728, "piece": 1729, "notorious": 1730, "84": 1731, "tore": 1732, "wallace": 1733, "biggie": 1734, "smalls": 1735, "frank": 1736, "ets": 1737, "chapter": 1738, "travis": 1739, "85": 1740, "jacques": 1741, "ber@@": 1742, "webster": 1743, "flame": 1744, "cactus": 1745, "jack": 1746, "hun@@": 1747, "cho": 1748, "rodeo": 1749, "birds": 1750, "sing": 1751, "astro@@": 1752, "utopia": 1753, "tyler": 1754, "creator": 1755, "86": 1756, "gregory": 1757, "ok@@": 1758, "gap": 1759, "stank": 1760, "haley": 1761, "wolf": 1762, "smell": 1763, "panties": 1764, "goblin": 1765, "cherry": 1766, "bomb": 1767, "flower": 1768, "igor": 1769, "87": 1770, "jody": 1771, "hawkins": 1772, "golden": 1773, "arms": 1774, "cit@@": 1775, "ement": 1776, "pi@@": 1777, "um": 1778, "key@@": 1779, "note": 1780, "speaker": 1781, "venom": 1782, "vanilla": 1783, "matthew": 1784, "van": 1785, "winkle": 1786, "extreme": 1787, "blowin": 1788, "swallow": 1789, "bi": 1790, "polar": 1791, "platinum": 1792, "wisdom": 1793, "tenacity": 1794, "focus": 1795, "vinnie": 1796, "paz": 1797, "89": 1798, "vin@@": 1799, "cen@@": 1800, "zo": 1801, "philadelphia": 1802, "army": 1803, "pharoa@@": 1804, "jedi": 1805, "tricks": 1806, "assassin": 1807, "serengeti": 1808, "cornerstone": 1809, "corner": 1810, "store": 1811, "collector": 1812, "as": 1813, "above": 1814, "below": 1815, "wiz": 1816, "khalifa": 1817, "90": 1818, "cameron": 1819, "ji@@": 1820, "bri@@": 1821, "tho@@": 1822, "pittsburgh": 1823, "prove": 1824, "deal": 1825, "rolling": 1826, "papers": 1827, "blacc": 1828, "2005": 1829, "xzibit": 1830, "91": 1831, "alvin": 1832, "jo@@": 1833, "iner": 1834, "exhibit": 1835, "wow": 1836, "likwit": 1837, "serial": 1838, "killers": 1839, "strong": 1840, "arm": 1841, "steady": 1842, "speed": 1843, "night@@": 1844, "restless": 1845, "machine": 1846, "weapons": 1847, "destruction": 1848, "full": 1849, "napalm": 1850, "also": 1851, "known": 1852, "have": 1853, "groups": 1854, "released": 1855, "albums": 1856, "such": 1857, "rapping": 1858, "since": 1859, "S": 1860, "niggas": 1861, "gon": 1862, "learn": 1863, "L": 1864, "them": 1865, "jersey": 1866, "staten": 1867, "two": 1868, "three": 1869, "fo": 1870, "glide": 1871, "theres": 1872, "simply": 1873, "traction": 1874, "10304": 1875, "action": 1876, "door": 1877, "shawty": 1878, "whole": 1879, "team": 1880, "smash": 1881, "her": 1882, "tour": 1883, "splash": 1884, "bravado": 1885, "fast": 1886, "fi@@": 1887, "ci@@": 1888, "ona@@": 1889, "do": 1890, "vandal": 1891, "tomorrow": 1892, "truth": 1893, "heres": 1894, "proof": 1895, "ill": 1896, "nigga": 1897, "spit": 1898, "con@@": 1899, "tainment": 1900, "suit": 1901, "booth": 1902, "aim": 1903, "shoot": 1904, "cave": 1905, "roof": 1906, "hater": 1907, "wouldnt": 1908, "shoes": 1909, "know": 1910, "very": 1911, "well": 1912, "bet": 1913, "he": 1914, "swell": 1915, "tell": 1916, "jea@@": 1917, "price": 1918, "pills": 1919, "kre@@": 1920, "li": 1921, "sell": 1922, "mathematics": 1923, "tracks": 1924, "craft": 1925, "havoc": 1926, "fact": 1927, "blacked": 1928, "loo@@": 1929, "key": 1930, "here": 1931, "beastin": 1932, "car": 1933, "revere": 1934, "horsepower": 1935, "fell": 1936, "mirror": 1937, "drop": 1938, "ears": 1939, "letterman": 1940, "edison": 1941, "through": 1942, "wire": 1943, "wrote": 1944, "maryland": 1945, "arrogant": 1946, "yes": 1947, "tune": 1948, "flex": 1949, "cut": 1950, "check": 1951, "ress": 1952, "age": 1953, "about": 1954, "bread": 1955, "tryna": 1956, "nice": 1957, "history": 1958, "divorced": 1959, "bitch": 1960, "bore": 1961, "throw": 1962, "hands": 1963, "tear": 1964, "bar": 1965, "much": 1966, "bud": 1967, "started": 1968, "sweating": 1969, "cigar": 1970, "guts": 1971, "folks": 1972, "starbucks": 1973, "gotta": 1974, "fucking": 1975, "that": 1976, "ladies": 1977, "gentlemen": 1978, "need": 1979, "put": 1980, "producer": 1981, "symbol": 1982, "please": 1983, "our": 1984, "park": 1985, "wars": 1986, "beat": 1987, "box": 1988, "pop": 1989, "lock": 1990, "spinnin": 1991, "cardboard": 1992, "graffiti": 1993, "style": 1994, "rim": 1995, "brown": 1996, "sugar": 1997, "belly": 1998, "cb4": 1999, "rush": 2000, "groove": 2001, "flow": 2002, "sure": 2003, "thats": 2004, "reason": 2005, "pardon": 2006, "whos": 2007, "crashed": 2008, "party": 2009, "they": 2010, "just": 2011, "baller": 2012, "blockin": 2013, "cause": 2014, "stoppin": 2015, "til": 2016, "state": 2017, "property": 2018, "how": 2019, "hook": 2020, "hops": 2021, "comin": 2022, "straight": 2023, "outta": 2024, "call": 2025, "em": 2026, "dle@@": 2027, "but": 2028, "alone": 2029, "cant": 2030, "hack": 2031, "tactics": 2032, "semi": 2033, "automatic": 2034, "fanatic": 2035, "mean": 2036, "lean": 2037, "pump": 2038, "spunk": 2039, "chump": 2040, "gun": 2041, "bliss": 2042, "fist": 2043, "mantis": 2044, "those": 2045, "who": 2046, "oppose": 2047, "dropped": 2048, "hit": 2049, "canvas": 2050, "rig@@": 2051, "or@@": 2052, "mor": 2053, "core": 2054, "legs": 2055, "figure": 2056, "four": 2057, "stop": 2058, "force": 2059, "cour@@": 2060, "sin": 2061, "extortion": 2062, "headless": 2063, "horse@@": 2064, "enfor@@": 2065, "cin": 2066, "torturous": 2067, "slang": 2068, "fortune": 2069, "swordsman": 2070, "corpse": 2071, "coffins": 2072, "glocks": 2073, "cop": 2074, "plea": 2075, "hundred": 2076, "thousand": 2077, "leagues": 2078, "sea": 2079, "deep": 2080, "depths": 2081, "rappers": 2082, "ted": 2083, "weak": 2084, "asses": 2085, "cracks": 2086, "often": 2087, "lay": 2088, "lines": 2089, "hits": 2090, "harmin": 2091, "bombin": 2092, "bombar@@": 2093, "d@@": 2094, "ments": 2095, "pushin": 2096, "weed": 2097, "pounds": 2098, "railroad": 2099, "track": 2100, "pavement": 2101, "gaze": 2102, "amazement": 2103, "wonder": 2104, "where": 2105, "went": 2106, "bangles": 2107, "microphone": 2108, "gettin": 2109, "strangled": 2110, "five": 2111, "general": 2112, "scars": 2113, "want": 2114, "angle": 2115, "bizarre": 2116, "thriller": 2117, "scar": 2118, "sheisty": 2119, "mic": 2120, "device": 2121, "hand": 2122, "throbbin": 2123, "slice": 2124, "mics": 2125, "precise": 2126, "vings": 2127, "set": 2128, "flames": 2129, "fighter": 2130, "planes": 2131, "mcs": 2132, "shot": 2133, "range": 2134, "sniper": 2135, "question": 2136, "marks": 2137, "session": 2138, "starts": 2139, "sparks": 2140, "flows": 2141, "explodes": 2142, "grenades": 2143, "parts": 2144, "soldier": 2145, "mos": 2146, "holder": 2147, "globe": 2148, "both": 2149, "sole": 2150, "controller": 2151, "blast": 2152, "crime": 2153, "pays": 2154, "slip": 2155, "past": 2156, "cyphers": 2157, "flash": 2158, "photograph": 2159, "best": 2160, "seller": 2161, "compose": 2162, "rough": 2163, "draft": 2164, "razor": 2165, "sharp": 2166, "vocabulary": 2167, "glass": 2168, "actual": 2169, "facts": 2170, "crowds": 2171, "thousands": 2172, "collapse": 2173, "catch": 2174, "bugs": 2175, "phone": 2176, "taps": 2177, "whether": 2178, "crimes": 2179, "mines": 2180, "regardless": 2181, "targets": 2182, "markets": 2183, "pirates": 2184, "feel": 2185, "aura": 2186, "impor@@": 2187, "ter": 2188, "raps": 2189, "snuck": 2190, "cross": 2191, "border": 2192, "atta@@": 2193, "ckll": 2194, "spray": 2195, "yall": 2196, "swingin": 2197, "slay": 2198, "awol": 2199, "true": 2200, "has": 2201, "chosen": 2202, "few": 2203, "must": 2204, "once": 2205, "asked": 2206, "forgive": 2207, "sins": 2208, "bent": 2209, "knees": 2210, "pleadin": 2211, "heavenly": 2212, "cleansed": 2213, "changed": 2214, "ways": 2215, "actions": 2216, "men": 2217, "stood": 2218, "felt": 2219, "if": 2220, "walked": 2221, "held": 2222, "nines": 2223, "frail": 2224, "criminal": 2225, "thoughts": 2226, "designed": 2227, "older": 2228, "maintain": 2229, "360": 2230, "lord": 2231, "prosperous": 2232, "his": 2233, "jewel": 2234, "priceless": 2235, "cypher": 2236, "righteous": 2237, "bare": 2238, "own": 2239, "wont": 2240, "mentally": 2241, "scarred": 2242, "cu@@": 2243, "per@@": 2244, "atin": 2245, "abra@@": 2246, "fooled": 2247, "interpre@@": 2248, "tations": 2249, "traitor": 2250, "taught": 2251, "law": 2252, "obtain": 2253, "clothin": 2254, "shelter": 2255, "search": 2256, "eyes": 2257, "earths": 2258, "what": 2259, "hurts": 2260, "we": 2261, "dirt": 2262, "honest": 2263, "fiend": 2264, "called": 2265, "promised": 2266, "land": 2267, "sun": 2268, "knowledge": 2269, "understand": 2270, "matters": 2271, "wicked": 2272, "escape": 2273, "facin": 2274, "masters": 2275, "plantation": 2276, "source": 2277, "yet": 2278, "caged": 2279, "cuz": 2280, "9000": 2281, "miles": 2282, "swim": 2283, "many": 2284, "survive": 2285, "families": 2286, "raped": 2287, "enslaved": 2288, "ex@@": 2289, "iled": 2290, "learned": 2291, "unlock": 2292, "brain": 2293, "mindstate": 2294, "remain": 2295, "pursuit": 2296, "happiness": 2297, "lack": 2298, "complete": 2299, "package": 2300, "might": 2301, "blow": 2302, "shown": 2303, "proved": 2304, "course": 2305, "dumb": 2306, "deaf": 2307, "blind": 2308, "inc@@": 2309, "line": 2310, "build": 2311, "came": 2312, "far": 2313, "uplift": 2314, "rise": 2315, "shine": 2316, "speak": 2317, "yellow": 2318, "seeds": 2319, "fellow": 2320, "colors": 2321, "creed": 2322, "use": 2323, "science": 2324, "math": 2325, "queens": 2326, "centuries": 2327, "devil": 2328, "tried": 2329, "fool": 2330, "people": 2331, "believe": 2332, "him": 2333, "culture": 2334, "freedom": 2335, "positive": 2336, "leave": 2337, "suckers": 2338, "yeah": 2339, "kman": 2340, "poems": 2341, "dice": 2342, "hold": 2343, "tones": 2344, "bones": 2345, "beats": 2346, "larry": 2347, "holmes": 2348, "valley": 2349, "bee": 2350, "sting": 2351, "fuckin": 2352, "arch@@": 2353, "bishop": 2354, "defyin": 2355, "startin": 2356, "nypd": 2357, "break": 2358, "dishes": 2359, "wear": 2360, "jet": 2361, "hoods": 2362, "lookin": 2363, "suspicious": 2364, "behold": 2365, "ultra": 2366, "harmoni@@": 2367, "zer": 2368, "paraly@@": 2369, "artist": 2370, "spilled": 2371, "synthe@@": 2372, "4th": 2373, "turn": 2374, "peak": 2375, "tweet": 2376, "iron": 2377, "sheik": 2378, "camel": 2379, "clutch": 2380, "seat": 2381, "punch": 2382, "clock": 2383, "dock": 2384, "engine@@": 2385, "ered": 2386, "thought": 2387, "present": 2388, "comprehend": 2389, "while": 2390, "fill": 2391, "ten": 2392, "path": 2393, "stay": 2394, "lurkin": 2395, "circlin": 2396, "premises": 2397, "dart": 2398, "chemist": 2399, "sent": 2400, "arch": 2401, "nemesis": 2402, "conco@@": 2403, "ctin": 2404, "neuro@@": 2405, "toxins": 2406, "synonyms": 2407, "send": 2408, "physical": 2409, "triple": 2410, "shock": 2411, "crippled": 2412, "detox": 2413, "reme@@": 2414, "mber@@": 2415, "ance": 2416, "rocks": 2417, "shows": 2418, "minimum": 2419, "capacity": 2420, "pack": 2421, "naturally": 2422, "killin": 2423, "swing": 2424, "stage": 2425, "jagged": 2426, "pendu@@": 2427, "lums": 2428, "thirty": 2429, "shrapnel": 2430, "pins": 2431, "why": 2432, "risk": 2433, "flip": 2434, "egotistic": 2435, "grounds": 2436, "twin": 2437, "biscuits": 2438, "surround": 2439, "bound": 2440, "flood": 2441, "drown": 2442, "headliner": 2443, "move": 2444, "side@@": 2445, "win@@": 2446, "der": 2447, "drif@@": 2448, "vagina": 2449, "finder": 2450, "loungin": 2451, "seashore": 2452, "switch": 2453, "bloody": 2454, "roar": 2455, "slap": 2456, "hardcore": 2457, "dick": 2458, "main": 2459, "tox@@": 2460, "bacardi": 2461, "pina": 2462, "low": 2463, "crawlin": 2464, "medina": 2465, "slumped": 2466, "seven": 2467, "seater": 2468, "dumpin": 2469, "heaters": 2470, "bite": 2471, "seizures": 2472, "movin": 2473, "charted": 2474, "across": 2475, "blindin": 2476, "bees": 2477, "plant": 2478, "log": 2479, "knocked": 2480, "pawn": 2481, "horns": 2482, "9th": 2483, "chamber": 2484, "falls": 2485, "reality": 2486, "close": 2487, "memory": 2488, "bear": 2489, "witness": 2490, "realness": 2491, "proven": 2492, "had": 2493, "nobody": 2494, "would": 2495, "easy": 2496, "aiyo": 2497, "hive": 2498, "eastside": 2499, "duckin": 2500, "roll": 2501, "wit": 2502, "sweet": 2503, "sweep": 2504, "bug": 2505, "bout": 2506, "fried": 2507, "spittin": 2508, "scribe": 2509, "disguise": 2510, "wan": 2511, "access": 2512, "denied": 2513, "motto": 2514, "livin": 2515, "offer": 2516, "stalker": 2517, "prepar@@": 2518, "sayonara": 2519, "torture": 2520, "supporters": 2521, "bein": 2522, "veteran": 2523, "lace": 2524, "heads": 2525, "creased": 2526, "footprints": 2527, "wherever": 2528, "blessed": 2529, "presence": 2530, "essence": 2531, "given": 2532, "prescription": 2533, "medicine": 2534, "settin": 2535, "standard": 2536, "fail": 2537, "measurin": 2538, "suck": 2539, "too": 2540, "thorns": 2541, "pawns": 2542, "darts": 2543, "beyond": 2544, "shuffle": 2545, "buckle": 2546, "heard": 2547, "blew": 2548, "numb": 2549, "100": 2550, "ccs": 2551, "morphine": 2552, "taken": 2553, "daily": 2554, "reach": 2555, "off@@": 2556, "springs": 2557, "cold": 2558, "judge": 2559, "fold": 2560, "though": 2561, "fake": 2562, "gold": 2563, "old": 2564, "parole": 2565, "holds": 2566, "midst": 2567, "clips": 2568, "rip": 2569, "zip": 2570, "code": 2571, "sick": 2572, "cond@@": 2573, "soon": 2574, "spread": 2575, "ebola": 2576, "autopsy": 2577, "showed": 2578, "reports": 2579, "another": 2580, "overdo@@": 2581, "ser": 2582, "over@@": 2583, "exposure": 2584, "thrower": 2585, "ya": 2586, "hostage": 2587, "names": 2588, "ayatollah": 2589, "quota": 2590, "roller": 2591, "cobra": 2592, "whistle": 2593, "unofficial": 2594, "pistol": 2595, "pops": 2596, "ceremony": 2597, "within": 2598, "gristle": 2599, "sign": 2600, "lifeline": 2601, "bubble": 2602, "fine": 2603, "wine": 2604, "dyin": 2605, "dopeman": 2606, "deliver": 2607, "postman": 2608, "patrol": 2609, "saw": 2610, "did": 2611, "run": 2612, "teens": 2613, "strung": 2614, "plus": 2615, "fiends": 2616, "abundance": 2617, "lined": 2618, "spendin": 2619, "100s": 2620, "provides": 2621, "continuous": 2622, "give": 2623, "every": 2624, "sides": 2625, "buy": 2626, "supply": 2627, "ride": 2628, "daybreak": 2629, "making": 2630, "dough": 2631, "write": 2632, "fossils": 2633, "directed": 2634, "protective": 2635, "goggles": 2636, "shao@@": 2637, "lins": 2638, "borough": 2639, "picasso": 2640, "hollow": 2641, "point": 2642, "foes": 2643, "follow": 2644, "bottle": 2645, "tomor@@": 2646, "ow": 2647, "chewin": 2648, "winds": 2649, "convo": 2650, "diablo": 2651, "verrazano": 2652, "beasts": 2653, "raid": 2654, "stand": 2655, "heat": 2656, "seek": 2657, "shade": 2658, "rapture": 2659, "tackled": 2660, "ratt@@": 2661, "les": 2662, "chose": 2663, "role": 2664, "ritual": 2665, "walkin": 2666, "coals": 2667, "quick": 2668, "spot": 2669, "pose": 2670, "friends": 2671, "wind": 2672, "violated": 2673, "oh": 2674, "wreck": 2675, "zzlin": 2676, "display": 2677, "enough": 2678, "crush": 2679, "anaconda": 2680, "fierce": 2681, "thatll": 2682, "pierce": 2683, "solid": 2684, "armor": 2685, "lounge": 2686, "bar@@": 2687, "racks": 2688, "capp@@": 2689, "adon@@": 2690, "spider": 2691, "identity": 2692, "peter": 2693, "crowd": 2694, "pleaser": 2695, "register": 2696, "meter": 2697, "vocal": 2698, "sweeper": 2699, "buck": 2700, "pleasure": 2701, "seekers": 2702, "thou": 2703, "stands": 2704, "fans": 2705, "jamaica": 2706, "sands": 2707, "conquer": 2708, "wide": 2709, "eagle": 2710, "wingspan": 2711, "clan@@": 2712, "sman": 2713, "stabbin": 2714, "lost": 2715, "fools": 2716, "handle": 2717, "road": 2718, "lose": 2719, "palm": 2720, "firearm": 2721, "mission": 2722, "stride": 2723, "chaka": 2724, "khan": 2725, "web": 2726, "com": 2727, "place": 2728, "third": 2729, "degree": 2730, "deadly": 2731, "goes": 2732, "catastrophe": 2733, "crash": 2734, "rec": 2735, "swarmin": 2736, "protect": 2737, "neck": 2738, "warnin": 2739, "proceed": 2740, "caution": 2741, "walk": 2742, "sword@@": 2743, "smen": 2744, "win": 2745, "puerto": 2746, "rico": 2747, "caves": 2748, "berlin": 2749, "echo@@": 2750, "cell": 2751, "blocks": 2752, "pens": 2753, "physically": 2754, "invent": 2755, "b@@": 2756, "fence": 2757, "represent": 2758, "entrance": 2759, "lecture": 2760, "contents": 2761, "stretcher": 2762, "featherweight": 2763, "tenders": 2764, "surrender": 2765, "round": 2766, "knockout": 2767, "vets": 2768, "spen@@": 2769, "ders": 2770, "marco": 2771, "polo": 2772, "internal": 2773, "bleedin": 2774, "occurs": 2775, "photo": 2776, "brought": 2777, "forth": 2778, "north": 2779, "rushed": 2780, "tough": 2781, "ground": 2782, "noon": 2783, "police": 2784, "tapes": 2785, "room": 2786, "jump": 2787, "provide": 2788, "consume": 2789, "become": 2790, "faint": 2791, "fumes": 2792, "ayo": 2793, "cocked": 2794, "greener": 2795, "trees": 2796, "leanin": 2797, "pointer": 2798, "deser@@": 2799, "vin": 2800, "warrin": 2801, "rollers": 2802, "ignite": 2803, "voltage": 2804, "diagnosis": 2805, "doses": 2806, "ex": 2807, "blog": 2808, "youtube": 2809, "goon": 2810, "chewed": 2811, "rude": 2812, "online": 2813, "checking": 2814, "homey": 2815, "bedroom": 2816, "lust": 2817, "fil@@": 2818, "ming": 2819, "probably": 2820, "fucked": 2821, "barely": 2822, "nod": 2823, "convict": 2824, "ben@@": 2825, "ching": 2826, "yard": 2827, "optimus": 2828, "prime": 2829, "couldnt": 2830, "binoculars": 2831, "ahead": 2832, "obviously": 2833, "properly": 2834, "mine": 2835, "didnt": 2836, "lyrically": 2837, "blunt": 2838, "broad": 2839, "dump": 2840, "lifes": 2841, "publicity": 2842, "stunt": 2843, "think": 2844, "fever": 2845, "jam": 2846, "chu@@": 2847, "cked": 2848, "neither": 2849, "talking": 2850, "morpheus": 2851, "combined": 2852, "worshiping": 2853, "hir@@": 2854, "ys": 2855, "doing": 2856, "should": 2857, "tummy": 2858, "tucked": 2859, "jumping": 2860, "really": 2861, "budden": 2862, "worry": 2863, "song": 2864, "waiting": 2865, "basic": 2866, "truths": 2867, "hunt": 2868, "retract": 2869, "statements": 2870, "increase": 2871, "hatred": 2872, "hbo": 2873, "bo@@": 2874, "rocking": 2875, "joey": 2876, "imma": 2877, "text": 2878, "message": 2879, "rep": 2880, "dollars": 2881, "cents": 2882, "likely": 2883, "pits": 2884, "trife": 2885, "nike": 2886, "strips": 2887, "fuzzy": 2888, "underneath": 2889, "gloria": 2890, "ve@@": 2891, "ass": 2892, "calling": 2893, "obsessed": 2894, "computer": 2895, "scrub": 2896, "desk": 2897, "address": 2898, "problem": 2899, "swoll": 2900, "repu@@": 2901, "te": 2902, "writing": 2903, "mothafucka": 2904, "titans": 2905, "cracked": 2906, "taliban": 2907, "carrying": 2908, "bombs": 2909, "verbal": 2910, "sla@@": 2911, "ught": 2912, "hawk": 2913, "blowing": 2914, "flag": 2915, "towel": 2916, "chance": 2917, "load": 2918, "mag": 2919, "sha@@": 2920, "holding": 2921, "glorious": 2922, "wish": 2923, "couch": 2924, "suge": 2925, "nah": 2926, "halfway": 2927, "cat": 2928, "missing": 2929, "touch": 2930, "wack": 2931, "swagger": 2932, "jacked": 2933, "scenario": 2934, "other": 2935, "rugge@@": 2936, "dness": 2937, "fifty": 2938, "at@@": 2939, "label": 2940, "slippers": 2941, "microsoft": 2942, "crook": 2943, "juks": 2944, "wifey": 2945, "cook": 2946, "sitting": 2947, "reading": 2948, "books": 2949, "lame": 2950, "google": 2951, "feet": 2952, "act": 2953, "manhood": 2954, "took": 2955, "along": 2956, "kicks": 2957, "going": 2958, "bricks": 2959, "even": 2960, "boost": 2961, "career": 2962, "stuff": 2963, "id": 2964, "stupid": 2965, "drunk": 2966, "loose": 2967, "tongue": 2968, "fronting": 2969, "knew": 2970, "ask": 2971, "dis@@": 2972, "tching": 2973, "scale": 2974, "side": 2975, "floor": 2976, "will": 2977, "stab": 2978, "kick": 2979, "scratch": 2980, "claw": 2981, "fistfight": 2982, "grab": 2983, "brawl": 2984, "small": 2985, "timers": 2986, "done": 2987, "knows": 2988, "trying": 2989, "disrespect": 2990, "size": 2991, "mothafucking": 2992, "germany": 2993, "japan": 2994, "honolulu": 2995, "france": 2996, "ethiopi@@": 2997, "croa@@": 2998, "tia": 2999, "bow": 3000, "greatness": 3001, "recruit": 3002, "everybody": 3003, "sharks": 3004, "response": 3005, "minutes": 3006, "eight": 3007, "holla": 3008, "tired": 3009, "trials": 3010, "tribulations": 3011, "seems": 3012, "escapin": 3013, "worlds": 3014, "imagination": 3015, "could": 3016, "elevation": 3017, "ju@@": 3018, "ms": 3019, "lump": 3020, "sums": 3021, "bustin": 3022, "guns": 3023, "trust": 3024, "crews": 3025, "fe@@": 3026, "lls": 3027, "shells": 3028, "prope@@": 3029, "dwellin": 3030, "jail": 3031, "tellin": 3032, "sellin": 3033, "system": 3034, "stacy": 3035, "little": 3036, "lady": 3037, "fucks": 3038, "crazi@@": 3039, "ly": 3040, "shape": 3041, "lately": 3042, "used": 3043, "spend": 3044, "quiet": 3045, "nights": 3046, "she": 3047, "likes": 3048, "roam": 3049, "feelin": 3050, "quite": 3051, "grown": 3052, "caught": 3053, "cyclone": 3054, "wise": 3055, "apply": 3056, "passed": 3057, "advance": 3058, "earn": 3059, "trapped": 3060, "forced": 3061, "although": 3062, "spell": 3063, "fight": 3064, "steve": 3065, "austin": 3066, "longer": 3067, "coffin": 3068, "bless": 3069, "whose": 3070, "shattered": 3071, "offered": 3072, "mend": 3073, "escaped": 3074, "fates": 3075, "sealed": 3076, "shell": 3077, "he@@": 3078, "ey": 3079, "newton": 3080, "plots": 3081, "surveillance": 3082, "moves": 3083, "jewels": 3084, "educate": 3085, "celebrate": 3086, "till": 3087, "elevate": 3088, "uh": 3089, "yea": 3090, "lot": 3091, "faces": 3092, "places": 3093, "always": 3094, "conquered": 3095, "witty": 3096, "unpredictable": 3097, "talent": 3098, "natural": 3099, "experience": 3100, "placed": 3101, "upon": 3102, "perpendicular": 3103, "flaws": 3104, "laws": 3105, "jaws": 3106, "writ@@": 3107, "walls": 3108, "heartless": 3109, "starvin": 3110, "ours": 3111, "marvelous": 3112, "doctr@@": 3113, "ines": 3114, "lotus": 3115, "steel": 3116, "cage": 3117, "duel": 3118, "page": 3119, "outlaws": 3120, "fours": 3121, "applause": 3122, "score": 3123, "pilla@@": 3124, "donna": 3125, "cap": 3126, "hittin": 3127, "cornerback": 3128, "blit@@": 3129, "zin": 3130, "fully": 3131, "auto": 3132, "strike": 3133, "caliber": 3134, "twist": 3135, "torso": 3136, "corks": 3137, "adjust": 3138, "highs": 3139, "bring": 3140, "lows": 3141, "speakin": 3142, "morse": 3143, "runnin": 3144, "dogs": 3145, "kennel": 3146, "venue": 3147, "simple": 3148, "chemistry": 3149, "vitamins": 3150, "minerals": 3151, "organic": 3152, "vowels": 3153, "son@@": 3154, "ants": 3155, "syllables": 3156, "condition": 3157, "critical": 3158, "individual": 3159, "paint": 3160, "vivid": 3161, "visual": 3162, "material": 3163, "rips": 3164, "messages": 3165, "stuck": 3166, "sentence": 3167, "bottomless": 3168, "vengeance": 3169, "masked": 3170, "avenger": 3171, "heritage": 3172, "measu@@": 3173, "rement": 3174, "flags": 3175, "confeder@@": 3176, "ates": 3177, "rule": 3178, "pity": 3179, "drops": 3180, "bodies": 3181, "scream": 3182, "delicate": 3183, "irrelevant": 3184, "intelligent": 3185, "habit": 3186, "fragments": 3187, "abandon": 3188, "commandments": 3189, "damage": 3190, "records": 3191, "spins": 3192, "features": 3193, "untamed": 3194, "thus": 3195, "blooded": 3196, "creatures": 3197, "bust": 3198, "architect": 3199, "gladiator": 3200, "radia@@": 3201, "tes": 3202, "erupt": 3203, "minds": 3204, "locked": 3205, "tower": 3206, "crooks": 3207, "cooked": 3208, "destroyed": 3209, "employed": 3210, "paranoid": 3211, "andro@@": 3212, "ids": 3213, "slams": 3214, "shu@@": 3215, "tters": 3216, "instinct": 3217, "drastic": 3218, "gymnastics": 3219, "average": 3220, "gala@@": 3221, "ctus": 3222, "lone": 3223, "ranger": 3224, "ancestors": 3225, "rolled": 3226, "stone": 3227, "bangers": 3228, "met": 3229, "anger": 3230, "performer": 3231, "raised": 3232, "soaked": 3233, "corners": 3234, "prey": 3235, "beginnin": 3236, "amongst": 3237, "strivin": 3238, "everything": 3239, "surroundin": 3240, "wishes": 3241, "distance": 3242, "vision": 3243, "planted": 3244, "mental": 3245, "detect": 3246, "analyze": 3247, "wolves": 3248, "wrestle": 3249, "pitbulls": 3250, "fist@@": 3251, "fuls": 3252, "empty": 3253, "pistols": 3254, "plotting": 3255, "elaborate": 3256, "scams": 3257, "fts": 3258, "maybe": 3259, "plans": 3260, "forcing": 3261, "claimed": 3262, "iller": 3263, "stayed": 3264, "realer": 3265, "grows": 3266, "traveled": 3267, "applauded": 3268, "heart": 3269, "roaming": 3270, "boat": 3271, "screaming": 3272, "stained": 3273, "nova@@": 3274, "caine": 3275, "doesnt": 3276, "slow": 3277, "tears": 3278, "numbers": 3279, "years": 3280, "fifteen": 3281, "hed": 3282, "already": 3283, "sipping": 3284, "remy": 3285, "settled": 3286, "survived": 3287, "echo": 3288, "guy": 3289, "getting": 3290, "whipping": 3291, "solidified": 3292, "different": 3293, "ticket": 3294, "vibe": 3295, "ca@@": 3296, "ped": 3297, "sections": 3298, "sleep": 3299, "checks": 3300, "knuckle": 3301, "knee": 3302, "inside": 3303, "beloved": 3304, "tossed": 3305, "ninth": 3306, "roamin": 3307, "wasteland": 3308, "focused": 3309, "grands": 3310, "hammers": 3311, "poa@@": 3312, "kin": 3313, "waistband": 3314, "pace": 3315, "plan": 3316, "millions": 3317, "marinate": 3318, "town": 3319, "fam": 3320, "temp@@": 3321, "tress": 3322, "teasing": 3323, "badly": 3324, "professional": 3325, "replied": 3326, "hey": 3327, "explaining": 3328, "forward": 3329, "rained": 3330, "claim": 3331, "sex": 3332, "evans": 3333, "stick": 3334, "gonna": 3335, "find": 3336, "digits": 3337, "figures": 3338, "fists": 3339, "princess": 3340, "flushin": 3341, "mea@@": 3342, "dow": 3343, "chick": 3344, "rockin": 3345, "six": 3346, "stilettos": 3347, "dra@@": 3348, "pped": 3349, "tailor": 3350, "leather": 3351, "suede": 3352, "serenade": 3353, "moment": 3354, "girl": 3355, "huggin": 3356, "rollin": 3357, "holdin": 3358, "admire": 3359, "attire": 3360, "bold": 3361, "attitude": 3362, "toe": 3363, "glowin": 3364, "attracted": 3365, "seem": 3366, "thru": 3367, "knowin": 3368, "bump": 3369, "hips": 3370, "swimmin": 3371, "ocean": 3372, "sunk": 3373, "ships": 3374, "ho@@": 3375, "min": 3376, "tight": 3377, "grip": 3378, "thunderous": 3379, "wake": 3380, "remini@@": 3381, "spark": 3382, "clip": 3383, "lovin": 3384, "wonderin": 3385, "nally": 3386, "burns": 3387, "carbon": 3388, "visit": 3389, "month": 3390, "trip": 3391, "turned": 3392, "snitch": 3393, "rescue": 3394, "haven": 3395, "ster": 3396, "sons": 3397, "nose": 3398, "twice": 3399, "weeks": 3400, "slidin": 3401, "hide": 3402, "seduction": 3403, "curves": 3404, "avoid": 3405, "sucked": 3406, "lustin": 3407, "function": 3408, "slid": 3409, "jumped": 3410, "fox": 3411, "tched": 3412, "collapsed": 3413, "back@@": 3414, "obscene": 3415, "phone@@": 3416, "breathin": 3417, "sounds": 3418, "moans": 3419, "intimate": 3420, "kiss": 3421, "followed": 3422, "dial": 3423, "repeatedly": 3424, "person": 3425, "kept": 3426, "callin": 3427, "givin": 3428, "graphic": 3429, "details": 3430, "sexual": 3431, "clue": 3432, "mustve": 3433, "total": 3434, "stranger": 3435, "annoyin": 3436, "talkin": 3437, "playin": 3438, "games": 3439, "arranged": 3440, "workin": 3441, "goin": 3442, "clicked": 3443, "rang": 3444, "directions": 3445, "shes": 3446, "doin": 3447, "thang": 3448, "arrived": 3449, "wet": 3450, "gas": 3451, "grass": 3452, "drinks": 3453, "rebellious": 3454, "felon@@": 3455, "slicker": 3456, "impact": 3457, "twista": 3458, "toss": 3459, "motor": 3460, "homes": 3461, "were": 3462, "found": 3463, "dinosaur": 3464, "perform": 3465, "elders": 3466, "origin": 3467, "scientists": 3468, "research": 3469, "calculate": 3470, "skatin": 3471, "space": 3472, "vibratin": 3473, "bass": 3474, "stun": 3475, "kind": 3476, "reclined": 3477, "cassette": 3478, "blasts": 3479, "vocals": 3480, "rippin": 3481, "15s": 3482, "wolverine": 3483, "lyric": 3484, "vaccine": 3485, "attach": 3486, "tractor": 3487, "beam": 3488, "lick": 3489, "magazine": 3490, "rhythms": 3491, "skin": 3492, "honeys": 3493, "sight": 3494, "crazy": 3495, "nonstop": 3496, "body": 3497, "ru@@": 3498, "shers": 3499, "hustler": 3500, "ck@@": 3501, "luster": 3502, "skills": 3503, "salute": 3504, "drill": 3505, "instru@@": 3506, "brawlin": 3507, "mess": 3508, "tall": 3509, "sonll": 3510, "restore": 3511, "wall": 3512, "singin": 3513, "deserve": 3514, "finer": 3515, "foreign": 3516, "cars": 3517, "fancy": 3518, "clothes": 3519, "rings": 3520, "exotic": 3521, "dancers": 3522, "shakin": 3523, "alcohol": 3524, "bartender": 3525, "kahlu@@": 3526, "milk": 3527, "crushed": 3528, "blender": 3529, "jelly": 3530, "points": 3531, "bargained": 3532, "putt": 3533, "sore": 3534, "motion": 3535, "screens": 3536, "laced": 3537, "lime": 3538, "green": 3539, "beams": 3540, "swift": 3541, "fetti": 3542, "board": 3543, "throwin": 3544, "jeff": 3545, "explore": 3546, "sweat": 3547, "chicks": 3548, "slide": 3549, "lootin": 3550, "popular": 3551, "demand": 3552, "murderous": 3553, "specialist": 3554, "rehearsal": 3555, "practice": 3556, "dips": 3557, "beaming": 3558, "july": 3559, "rays": 3560, "caesar": 3561, "fade": 3562, "blending": 3563, "shades": 3564, "cotton": 3565, "status": 3566, "sl": 3567, "screw": 3568, "swinging": 3569, "smokey": 3570, "walker": 3571, "closely": 3572, "mosey": 3573, "youll": 3574, "ogs": 3575, "witnessed": 3576, "tary": 3577, "public": 3578, "certified": 3579, "does": 3580, "gritty": 3581, "subway": 3582, "protocol": 3583, "permanent": 3584, "alias": 3585, "jamal": 3586, "universe": 3587, "owning": 3588, "meantime": 3589, "between": 3590, "travel": 3591, "uphill": 3592, "climb": 3593, "friction": 3594, "guaranteed": 3595, "spar": 3596, "stimulate": 3597, "creative": 3598, "testosterone": 3599, "cal@@": 3600, "men@@": 3601, "opa@@": 3602, "usable": 3603, "hor@@": 3604, "mone": 3605, "qua@@": 3606, "estrogen": 3607, "supre@@": 3608, "mely": 3609, "hesitate": 3610, "stomp": 3611, "form": 3612, "frame": 3613, "contains": 3614, "elements": 3615, "which": 3616, "began": 3617, "healing": 3618, "allah": 3619, "spare": 3620, "seed": 3621, "technique": 3622, "breathe": 3623, "earth": 3624, "feed": 3625, "volts": 3626, "threa@@": 3627, "ning": 3628, "gments": 3629, "hectic": 3630, "east": 3631, "coasting": 3632, "overseas": 3633, "tightly": 3634, "woven": 3635, "pulling": 3636, "gs": 3637, "mouth": 3638, "gets": 3639, "excel": 3640, "cast": 3641, "spells": 3642, "similar": 3643, "merlin": 3644, "surgeon": 3645, "hang": 3646, "ving": 3647, "splurge": 3648, "inner": 3649, "censor@@": 3650, "ed": 3651, "version": 3652, "merging": 3653, "lane": 3654, "cheap": 3655, "tically": 3656, "start": 3657, "beef": 3658, "any": 3659, "comeback": 3660, "attempts": 3661, "repeats": 3662, "techniques": 3663, "leaves": 3664, "crease": 3665, "shooting": 3666, "cease": 3667, "desire": 3668, "sire": 3669, "disturbing": 3670, "phers": 3671, "comes": 3672, "tries": 3673, "secret": 3674, "leak": 3675, "snakes": 3676, "leeches": 3677, "diversion": 3678, "swiftness": 3679, "weave": 3680, "rain@@": 3681, "leaving": 3682, "confused": 3683, "understanding": 3684, "blurred": 3685, "cloudy": 3686, "electrical": 3687, "storms": 3688, "occur": 3689, "classical": 3690, "rises": 3691, "licking": 3692, "lung": 3693, "motherfucker": 3694, "feature": 3695, "presentation": 3696, "early": 3697, "june": 3698, "platoon": 3699, "groomed": 3700, "raise": 3701, "volume": 3702, "react": 3703, "werewolf": 3704, "trojan": 3705, "horse": 3706, "pushing": 3707, "belt": 3708, "fastened": 3709, "blasting": 3710, "into": 3711, "orbit": 3712, "bang@@": 3713, "number": 3714, "expert": 3715, "precision": 3716, "design": 3717, "matter": 3718, "fines": 3719, "amazin": 3720, "grace": 3721, "blazin": 3722, "brakes": 3723, "invadin": 3724, "remains": 3725, "claimin": 3726, "raisin": 3727, "stakes": 3728, "disgrace": 3729, "prepare": 3730, "warfare": 3731, "invincible": 3732, "theyre": 3733, "square": 3734, "mad": 3735, "coast": 3736, "fog": 3737, "99": 3738, "powered": 3739, "spits": 3740, "gasoline": 3741, "ars": 3742, "rag": 3743, "tuck": 3744, "cing": 3745, "ram@@": 3746, "rod": 3747, "garage": 3748, "grease": 3749, "lightning": 3750, "rose": 3751, "shake": 3752, "bon": 3753, "voyage": 3754, "flying": 3755, "feud": 3756, "writers": 3757, "triggers": 3758, "fighters": 3759, "tracked": 3760, "cock": 3761, "exact": 3762, "crushing": 3763, "riding": 3764, "helmet": 3765, "6th": 3766, "least": 3767, "scrimmage": 3768, "racing": 3769, "finish": 3770, "hunger": 3771, "purse": 3772, "snatching": 3773, "pound": 3774, "means": 3775, "snatch": 3776, "cream": 3777, "rogers": 3778, "overstand": 3779, "piranhas": 3780, "moving": 3781, "monaco": 3782, "gt": 3783, "3d": 3784, "tv": 3785, "easily": 3786, "breezing": 3787, "watching": 3788, "skid": 3789, "charts": 3790, "aimed": 3791, "hearts": 3792, "sparked": 3793, "gate": 3794, "penetrate": 3795, "freestyle": 3796, "decoy": 3797, "sharpen": 3798, "bait": 3799, "weight": 3800, "domin@@": 3801, "circu@@": 3802, "lating": 3803, "taking": 3804, "bets": 3805, "twir@@": 3806, "ling": 3807, "ls": 3808, "freeway": 3809, "ny": 3810, "sc": 3811, "nc": 3812, "va": 3813, "fl": 3814, "il": 3815, "mi": 3816, "near": 3817, "check@@": 3818, "flake": 3819, "tan@@": 3820, "1st": 3821, "2nd": 3822, "3rd": 3823, "positions": 3824, "pot": 3825, "300@@": 3826, "0000": 3827, "loot": 3828, "air": 3829, "max": 3830, "hyper@@": 3831, "der@@": 3832, "mix": 3833, "share": 3834, "dope": 3835, "wax": 3836, "wigs": 3837, "metaphors": 3838, "hammer": 3839, "thor": 3840, "sirens": 3841, "gats": 3842, "ragin": 3843, "bull": 3844, "matador": 3845, "soar": 3846, "branded": 3847, "illegal": 3848, "eagles": 3849, "keanu": 3850, "rea@@": 3851, "ves": 3852, "match": 3853, "exceed": 3854, "ken@@": 3855, "retri@@": 3856, "eval": 3857, "bangin": 3858, "droppin": 3859, "prison": 3860, "restin": 3861, "representin": 3862, "piss": 3863, "timer": 3864, "position": 3865, "kiddin": 3866, "radios": 3867, "mixin": 3868, "whistlin": 3869, "listen": 3870, "came@@": 3871, "leons": 3872, "wrong": 3873, "switchin": 3874, "clark": 3875, "kent": 3876, "drama": 3877, "commence": 3878, "gents": 3879, "poetrys": 3880, "intense": 3881, "trench": 3882, "bench": 3883, "invest": 3884, "favored": 3885, "excell@@": 3886, "ency": 3887, "successfully": 3888, "defendin": 3889, "oun@@": 3890, "treated": 3891, "towners": 3892, "jur@@": 3893, "sic": 3894, "insides": 3895, "norm": 3896, "icon": 3897, "ridin": 3898, "spaz": 3899, "memories": 3900, "nam": 3901, "rendezvous": 3902, "sa@@": 3903, "igon": 3904, "showin": 3905, "beat@@": 3906, "ray@@": 3907, "mo": 3908, "makin": 3909, "aimin": 3910, "away": 3911, "takin": 3912, "thoroughbred": 3913, "throughout": 3914, "metro": 3915, "elbow": 3916, "bitches": 3917, "velcro": 3918, "gra@@": 3919, "expand": 3920, "crystal": 3921, "teach": 3922, "ir": 3923, "stream": 3924, "trump": 3925, "slayer": 3926, "payne": 3927, "dweller": 3928, "garden": 3929, "chain": 3930, "link": 3931, "blink": 3932, "stare": 3933, "hate": 3934, "voice": 3935, "luther": 3936, "mer": 3937, "air@@": 3938, "bender": 3939, "chill": 3940, "sarge": 3941, "bottom": 3942, "hooked": 3943, "hes": 3944, "experienced": 3945, "avalon": 3946, "type": 3947, "noid": 3948, "recognize": 3949, "tiger": 3950, "breather": 3951, "champion": 3952, "ruger": 3953, "clap": 3954, "buzzing": 3955, "cousin": 3956, "js": 3957, "crisp": 3958, "styling": 3959, "stat": 3960, "cal": 3961, "popping": 3962, "purp": 3963, "smoking": 3964, "toke": 3965, "tidal": 3966, "slave": 3967, "bell": 3968, "ringer": 3969, "springer": 3970, "chair": 3971, "doubting": 3972, "pulse": 3973, "script": 3974, "nows": 3975, "shooter": 3976, "armed": 3977, "commander": 3978, "pandemonium": 3979, "breeze": 3980, "camera": 3981, "jammed": 3982, "band": 3983, "deserted": 3984, "perfect": 3985, "femme": 3986, "tale": 3987, "pussy": 3988, "growl": 3989, "eartha": 3990, "kitt": 3991, "nursed": 3992, "looked": 3993, "realized": 3994, "infatuated": 3995, "lip": 3996, "servant": 3997, "aphrodisiac": 3998, "glanced": 3999, "posed": 4000, "playboy": 4001, "centerfold": 4002, "hydro@@": 4003, "totes": 4004, "nympho": 4005, "romantic": 4006, "interlude": 4007, "nude": 4008, "dinner": 4009, "private": 4010, "interview": 4011, "silent": 4012, "whisper": 4013, "beds": 4014, "rain": 4015, "window": 4016, "pane": 4017, "drove": 4018, "insane": 4019, "tamed": 4020, "half": 4021, "flipped": 4022, "train": 4023, "waitin": 4024, "inhale": 4025, "female": 4026, "packed": 4027, "banger": 4028, "reflectin": 4029, "brief": 4030, "inter@@": 4031, "up@@": 4032, "tion": 4033, "occur@@": 4034, "busted": 4035, "chances": 4036, "resist": 4037, "worked": 4038, "loved": 4039, "stamp": 4040, "vexed": 4041, "reconsider": 4042, "tangled": 4043, "triangle": 4044, "remind": 4045, "blame": 4046, "grew": 4047, "threw": 4048, "angles": 4049, "carats": 4050, "ankle": 4051, "tr@@": 4052, "ank": 4053, "llings": 4054, "avoidin": 4055, "skull": 4056, "bone": 4057, "spoke": 4058, "soft": 4059, "wore": 4060, "stones": 4061, "tin": 4062, "ease": 4063, "tension": 4064, "mention": 4065, "mans": 4066, "tremblin": 4067, "threatened": 4068, "jettin": 4069, "needed": 4070, "attention": 4071, "highness": 4072, "honorable": 4073, "cheated": 4074, "wouldve": 4075, "ethics": 4076, "punishment": 4077, "haha": 4078, "hahaha": 4079, "try": 4080, "sicker": 4081, "ar": 4082, "lit": 4083, "dripping": 4084, "face@@": 4085, "hair": 4086, "ig@@": 4087, "th": 4088, "charms": 4089, "butter": 4090, "super": 4091, "cape": 4092, "everywhere": 4093, "drapes": 4094, "drawn": 4095, "gucci": 4096, "y@@": 4097, "singing": 4098, "survivor": 4099, "akon": 4100, "welcome": 4101, "hancock": 4102, "name@@": 4103, "harm": 4104, "nauseous": 4105, "morn": 4106, "wha@@": 4107, "tchin": 4108, "lified": 4109, "squares": 4110, "boxes": 4111, "sicilian": 4112, "pies": 4113, "million": 4114, "youd": 4115, "creep": 4116, "pull": 4117, "biggest": 4118, "dimes": 4119, "haters": 4120, "european": 4121, "afraid": 4122, "myself": 4123, "consistent": 4124, "visions": 4125, "ridiculous": 4126, "wind@@": 4127, "meti@@": 4128, "culous": 4129, "plug": 4130, "lives": 4131, "examin@@": 4132, "ing": 4133, "hourglass": 4134, "splashing": 4135, "fashions": 4136, "soo@@": 4137, "cue": 4138, "platform": 4139, "exchange": 4140, "slowly": 4141, "bounced": 4142, "pulled": 4143, "gave": 4144, "described": 4145, "hypnotized": 4146, "ebony": 4147, "sed": 4148, "scheme": 4149, "temperature": 4150, "hours": 4151, "zoning": 4152, "happened": 4153, "short": 4154, "gat": 4155, "stash": 4156, "bbed": 4157, "jake": 4158, "nuff": 4159, "razors": 4160, "bags": 4161, "letting": 4162, "rest": 4163, "accepting": 4164, "collect": 4165, "calls": 4166, "bid": 4167, "sister": 4168, "braid": 4169, "glove": 4170, "slippery": 4171, "eels": 4172, "keeping": 4173, "closer": 4174, "smoked": 4175, "smooth": 4176, "getaway": 4177, "dash": 4178, "fleein": 4179, "scene": 4180, "dee@@": 4181, "gan": 4182, "steerin": 4183, "jeep": 4184, "spin": 4185, "precinct": 4186, "defendant": 4187, "grabbed": 4188, "tre": 4189, "jakes": 4190, "chase": 4191, "dreads": 4192, "scape": 4193, "creepin": 4194, "staircase": 4195, "lobby": 4196, "stares": 4197, "pos": 4198, "walkie": 4199, "talkie": 4200, "laid": 4201, "007": 4202, "wis": 4203, "whips": 4204, "parked": 4205, "license": 4206, "plate": 4207, "eliminate": 4208, "headin": 4209, "uncertain": 4210, "peeped": 4211, "curtain": 4212, "chi@@": 4213, "cky": 4214, "swervin": 4215, "suburban": 4216, "starin": 4217, "drivers": 4218, "china": 4219, "meet": 4220, "path@@": 4221, "stopped": 4222, "neighborhood": 4223, "diner": 4224, "swore": 4225, "watched": 4226, "tops": 4227, "partys": 4228, "holster": 4229, "struck": 4230, "bouncer": 4231, "shoulder": 4232, "po": 4233, "masses": 4234, "backstage": 4235, "sling": 4236, "passes": 4237, "sprayin": 4238, "mace": 4239, "riots": 4240, "dun": 4241, "trampled": 4242, "wildin": 4243, "tcher": 4244, "intermission": 4245, "crouch": 4246, "bullets": 4247, "ricoche@@": 4248, "strobe": 4249, "strikin": 4250, "christians": 4251, "slipped": 4252, "ammunition": 4253, "catsll": 4254, "quarter": 4255, "peeled": 4256, "seal": 4257, "passenger": 4258, "ditched": 4259, "whip": 4260, "locals": 4261, "interro@@": 4262, "gated": 4263, "photos": 4264, "swa@@": 4265, "ppin": 4266, "info": 4267, "wheelers": 4268, "hatch": 4269, "hitter": 4270, "honey": 4271, "hurry": 4272, "snap": 4273, "cover": 4274, "marv": 4275, "albert": 4276, "exhale": 4277, "q": 4278, "bentley": 4279, "f@@": 4280, "itty": 4281, "limes": 4282, "fraud": 4283, "forge": 4284, "ignore": 4285, "rocked": 4286, "halle": 4287, "monsters": 4288, "310": 4289, "under@@": 4290, "dawgz": 4291, "unsung": 4292, "sayin": 4293, "squeeze": 4294, "jimmy": 4295, "castor": 4296, "begun": 4297, "hoggin": 4298, "chains": 4299, "poppin": 4300, "hawkin": 4301, "loud": 4302, "believers": 4303, "uprise": 4304, "quicker": 4305, "chained": 4306, "dungeons": 4307, "cruisin": 4308, "ave": 4309, "tool": 4310, "tomb": 4311, "tax@@": 4312, "their": 4313, "business": 4314, "honor": 4315, "titan": 4316, "mcnair": 4317, "prepared": 4318, "smokin": 4319, "beware": 4320, "postin": 4321, "approachin": 4322, "movie": 4323, "tighter": 4324, "jeans": 4325, "hoochie": 4326, "groupies": 4327, "wait": 4328, "joint": 4329, "prophet": 4330, "holler": 4331, "open": 4332, "sleepin": 4333, "bouncin": 4334, "caddy": 4335, "giovan@@": 4336, "nis": 4337, "navi": 4338, "either": 4339, "smack": 4340, "knight": 4341, "h": 4342, "strippers": 4343, "smoke": 4344, "thugs": 4345, "rapper": 4346, "measure": 4347, "girlfriend": 4348, "drink": 4349, "hummer": 4350, "deuce": 4351, "hounds": 4352, "lungs": 4353, "aaliyah": 4354, "pun": 4355, "shotgun": 4356, "bop": 4357, "drums": 4358, "shocked": 4359, "stunned": 4360, "alive": 4361, "eyeballs": 4362, "blade": 4363, "choppin": 4364, "acknowledge": 4365, "rug": 4366, "stackhouse": 4367, "cockin": 4368, "brace": 4369, "ya@@": 4370, "selves": 4371, "shakedown": 4372, "willies": 4373, "seas": 4374, "jun@@": 4375, "glin": 4376, "ounce": 4377, "countin": 4378, "lames": 4379, "doubtin": 4380, "pretender": 4381, "player": 4382, "frontline": 4383, "sendin": 4384, "missles": 4385, "wig": 4386, "spiderman": 4387, "clickin": 4388, "mouse": 4389, "plates": 4390, "table": 4391, "knives": 4392, "forks": 4393, "clappin": 4394, "proud": 4395, "parents": 4396, "harder": 4397, "magne@@": 4398, "custom": 4399, "spokes": 4400, "vehicle": 4401, "sip": 4402, "50s": 4403, "sticky": 4404, "spliff": 4405, "shooters": 4406, "step": 4407, "whaddup": 4408, "pole": 4409, "shorty": 4410, "twerk": 4411, "twenty": 4412, "sixty": 4413, "pro@@": 4414, "saturday": 4415, "victor": 4416, "vic": 4417, "theyd": 4418, "neighbors": 4419, "players": 4420, "spent": 4421, "countless": 4422, "hour": 4423, "stove": 4424, "pyrex": 4425, "mountains": 4426, "powder": 4427, "chops": 4428, "wildlife": 4429, "rumble": 4430, "cops": 4431, "checkin": 4432, "view": 4433, "rooftops": 4434, "thinkin": 4435, "monster": 4436, "neo": 4437, "pill": 4438, "sometimes": 4439, "government": 4440, "informant": 4441, "indictments": 4442, "sentenced": 4443, "rack": 4444, "careful": 4445, "layin": 4446, "cats": 4447, "flat": 4448, "feds": 4449, "chat": 4450, "app": 4451, "domes": 4452, "spill": 4453, "enemies": 4454, "grow": 4455, "fuse": 4456, "edge": 4457, "thin": 4458, "ledge": 4459, "allegi@@": 4460, "ence": 4461, "pledge": 4462, "com@@": 4463, "tee": 4464, "shorties": 4465, "watchin": 4466, "adop@@": 4467, "pjs": 4468, "rage": 4469, "standin": 4470, "steal": 4471, "sunshine": 4472, "brutalize": 4473, "suicide": 4474, "parking": 4475, "charge": 4476, "likeness": 4477, "murderers": 4478, "discriminate": 4479, "choose": 4480, "fate": 4481, "hypo@@": 4482, "trey": 4483, "mayhem": 4484, "creeping": 4485, "hallways": 4486, "calico": 4487, "crept": 4488, "neighbourhood": 4489, "skunks": 4490, "sock": 4491, "slums": 4492, "floatin": 4493, "cuts": 4494, "mask": 4495, "notice": 4496, "rider": 4497, "kickin": 4498, "dust": 4499, "screen": 4500, "swollen": 4501, "veins": 4502, "feeling": 4503, "killing": 4504, "banned": 4505, "mansion": 4506, "yacht": 4507, "retali@@": 4508, "ran": 4509, "gangstas": 4510, "threat": 4511, "lion": 4512, "paw": 4513, "ripping": 4514, "jaw": 4515, "dismantle": 4516, "may": 4517, "somethings": 4518, "untold": 4519, "related": 4520, "ate": 4521, "sipped": 4522, "grapes": 4523, "lifestyle": 4524, "apologize": 4525, "compromising": 4526, "killas": 4527, "hired": 4528, "faggot": 4529, "wired": 4530, "capital": 4531, "regular": 4532, "dressed": 4533, "wrap": 4534, "strap": 4535, "momma": 4536, "pray": 4537, "devise": 4538, "temptation": 4539, "obey": 4540, "wasnt": 4541, "mold": 4542, "snow": 4543, "felonies": 4544, "adding": 4545, "rights": 4546, "relationship": 4547, "goals": 4548, "jealous": 4549, "judging": 4550, "looking": 4551, "scrutiny": 4552, "destiny": 4553, "dream": 4554, "listening": 4555, "feels": 4556, "hennessy": 4557, "racked": 4558, "bro": 4559, "help": 4560, "weather": 4561, "attitudes": 4562, "senseless": 4563, "relentless": 4564, "negativity": 4565, "endless": 4566, "citys": 4567, "fit": 4568, "shark": 4569, "killed": 4570, "rate": 4571, "kha@@": 4572, "pig": 4573, "crooked": 4574, "percent": 4575, "gamb@@": 4576, "ler": 4577, "save": 4578, "soldiers": 4579, "avenue": 4580, "rotten": 4581, "apple": 4582, "grapple": 4583, "stack": 4584, "shackles": 4585, "currently": 4586, "servin": 4587, "sear@@": 4588, "hyped": 4589, "pipe": 4590, "liquors": 4591, "plottin": 4592, "stripper": 4593, "rai@@": 4594, "tailing": 4595, "sailin": 4596, "clocks": 4597, "tickin": 4598, "somebodys": 4599, "snitchin": 4600, "plot": 4601, "thickens": 4602, "phones": 4603, "tapped": 4604, "married": 4605, "chorus": 4606, "calmly": 4607, "aiyyo": 4608, "carousel": 4609, "large": 4610, "causes": 4611, "clone": 4612, "weapon": 4613, "endin": 4614, "missed": 4615, "chanel": 4616, "ruled": 4617, "tutor": 4618, "simu@@": 4619, "lator": 4620, "user": 4621, "regrets": 4622, "intro": 4623, "windows": 4624, "reminisce": 4625, "chalice": 4626, "closed": 4627, "quit": 4628, "digit": 4629, "seagal": 4630, "target": 4631, "logic": 4632, "cutthroat": 4633, "souls": 4634, "carry": 4635, "oxes": 4636, "sane": 4637, "society": 4638, "eyein": 4639, "guilty": 4640, "teachin": 4641, "weekend": 4642, "minute": 4643, "eventually": 4644, "stress": 4645, "intellect": 4646, "aight": 4647, "13th": 4648, "para@@": 4649, "iiiiiiii@@": 4650, "iiii@@": 4651, "iiiiii@@": 4652, "ise": 4653, "huh": 4654, "everythings": 4655, "russell": 4656, "unique": 4657, "steak": 4658, "glistening": 4659, "froze": 4660, "wishin": 4661, "moan": 4662, "everyday": 4663, "zit": 4664, "mole": 4665, "stretch": 4666, "fitness": 4667, "grits": 4668, "homie": 4669, "winnin": 4670, "highly": 4671, "anticipated": 4672, "christmas": 4673, "chip": 4674, "friendships": 4675, "ten@@": 4676, "tative": 4677, "niggasll": 4678, "tricking": 4679, "vanessa": 4680, "splits": 4681, "happen": 4682, "broads": 4683, "happy": 4684, "snake": 4685, "glow": 4686, "ugly": 4687, "buddy": 4688, "sonny": 4689, "laughing": 4690, "funny": 4691, "kentucky": 4692, "lucky": 4693, "flashy": 4694, "bummy": 4695, "splashin": 4696, "bunny": 4697, "hungry": 4698, "faster": 4699, "lavish": 4700, "lovely": 4701, "ima": 4702, "massa@@": 4703, "cred": 4704, "grun@@": 4705, "gy": 4706, "fat": 4707, "bag": 4708, "funky": 4709, "pampers": 4710, "one@@": 4711, "sies": 4712, "enter": 4713, "vice": 4714, "stripes": 4715, "wings": 4716, "abs": 4717, "wavy": 4718, "fed": 4719, "cashing": 4720, "cadet": 4721, "breaking": 4722, "necks": 4723, "boombox": 4724, "tape": 4725, "cassettes": 4726, "faded": 4727, "decks": 4728, "sort": 4729, "portrait": 4730, "breath": 4731, "boasting": 4732, "favourite": 4733, "steps": 4734, "navy": 4735, "grey": 4736, "guards": 4737, "pe@@": 4738, "trif@@": 4739, "acs": 4740, "vet": 4741, "connect": 4742, "greatest": 4743, "defined": 4744, "laser": 4745, "rappin": 4746, "curtains": 4747, "rebellion": 4748, "tide": 4749, "out@@": 4750, "server": 4751, "fry": 4752, "burner": 4753, "dick@@": 4754, "circumci@@": 4755, "workers": 4756, "whispers": 4757, "mur@@": 4758, "mu@@": 4759, "further": 4760, "ties": 4761, "hurt": 4762, "died": 4763, "shouldve": 4764, "cries": 4765, "prize": 4766, "serpent": 4767, "thighs": 4768, "merrily": 4769, "commerci@@": 4770, "alized": 4771, "delivery": 4772, "cur@@": 4773, "friend": 4774, "shut": 4775, "saying": 4776, "women": 4777, "foundation": 4778, "strive": 4779, "beretta": 4780, "sector": 4781, "scenery": 4782, "measures": 4783, "pretenders": 4784, "bystander": 4785, "poll@@": 4786, "yin": 4787, "members": 4788, "distribu@@": 4789, "shootin": 4790, "execute": 4791, "deadliest": 4792, "tunin": 4793, "fusion": 4794, "spice": 4795, "hill@@": 4796, "sets": 4797, "threats": 4798, "cure": 4799, "experts": 4800, "street@@": 4801, "fan": 4802, "master": 4803, "acclaimed": 4804, "recoup": 4805, "pay": 4806, "budget": 4807, "video": 4808, "pimped": 4809, "ho": 4810, "slo": 4811, "robotic": 4812, "clones": 4813, "broke": 4814, "rope": 4815, "provoke": 4816, "scope": 4817, "mothers": 4818, "fathers": 4819, "bastard": 4820, "foul": 4821, "juvenile": 4822, "combine": 4823, "hitman": 4824, "hearns": 4825, "sixteen": 4826, "year@@": 4827, "ns": 4828, "turns": 4829, "cannon": 4830, "medi@@": 4831, "cally": 4832, "plague": 4833, "famine": 4834, "splurgin": 4835, "models": 4836, "capone": 4837, "pairs": 4838, "rear": 4839, "stairs": 4840, "blastin": 4841, "surfer": 4842, "thirsty": 4843, "stos": 4844, "building": 4845, "familiar": 4846, "scholar": 4847, "collar": 4848, "chronicles": 4849, "continue": 4850, "chart": 4851, "to@@": 4852, "pper": 4853, "dalai": 4854, "lama": 4855, "aqua": 4856, "pa": 4857, "piranha": 4858, "father": 4859, "qu@@": 4860, "ana": 4861, "yana": 4862, "cabana": 4863, "papa": 4864, "tatas": 4865, "cas": 4866, "opera": 4867, "sponsor": 4868, "rocket": 4869, "launcher": 4870, "offers": 4871, "ganja": 4872, "head@@": 4873, "cheech": 4874, "chong": 4875, "sweatin": 4876, "eyed": 4877, "warned": 4878, "thongs": 4879, "peeps": 4880, "jon": 4881, "belong": 4882, "alarmed": 4883, "indeed": 4884, "twee@@": 4885, "zers": 4886, "ton@@": 4887, "wea@@": 4888, "kened": 4889, "torn": 4890, "sneakers": 4891, "worn": 4892, "works": 4893, "burger": 4894, "deluxe": 4895, "bucks": 4896, "seein": 4897, "signs": 4898, "todays": 4899, "dunn": 4900, "burst": 4901, "verses": 4902, "scuff": 4903, "worthy": 4904, "rookie": 4905, "mercury": 4906, "truck": 4907, "uncut": 4908, "certainly": 4909, "links": 4910, "lurk": 4911, "verbally": 4912, "plush": 4913, "burnin": 4914, "dutch": 4915, "burgundy": 4916, "chucks": 4917, "girlies": 4918, "jams": 4919, "nuts": 4920, "wood": 4921, "discussed": 4922, "nikes": 4923, "jerseys": 4924, "pen@@": 4925, "effortless": 4926, "gen@@": 4927, "methodi@@": 4928, "sts": 4929, "speci@@": 4930, "lists": 4931, "flicks": 4932, "madness": 4933, "fantastic": 4934, "hinges": 4935, "legal": 4936, "syringes": 4937, "coasts": 4938, "fig@@": 4939, "gots": 4940, "dipped": 4941, "thr@@": 4942, "ought": 4943, "sprewells": 4944, "stallone": 4945, "cloned": 4946, "spike": 4947, "jon@@": 4948, "ze": 4949, "busy": 4950, "mal@@": 4951, "cho@@": 4952, "vich": 4953, "coward": 4954, "fainted": 4955, "bravehearts": 4956, "nothings": 4957, "dwell": 4958, "king@@": 4959, "sll": 4960, "ring": 4961, "bells": 4962, "mats": 4963, "fags": 4964, "unda@@": 4965, "gz": 4966, "chin": 4967, "thorough": 4968, "sec": 4969, "reppin": 4970, "henny": 4971, "plenty": 4972, "offs": 4973, "nut": 4974, "omen": 4975, "broken": 4976, "spoken": 4977, "driven": 4978, "impatiently": 4979, "thunder": 4980, "apart": 4981, "bounds": 4982, "bloodhound": 4983, "hunts": 4984, "correct": 4985, "lid": 4986, "alert": 4987, "lazer": 4988, "squint": 4989, "vibrant": 4990, "winter": 4991, "alikes": 4992, "immune": 4993, "bites": 4994, "coats": 4995, "original": 4996, "miracles": 4997, "lockin": 4998, "crown": 4999, "able": 5000, "stable": 5001, "fatal": 5002, "9s": 5003, "beau@@": 5004, "seduce": 5005, "hootie": 5006, "blow@@": 5007, "groupie": 5008, "unru@@": 5009, "fury": 5010, "loosely": 5011, "jewe@@": 5012, "ll@@": 5013, "ry": 5014, "competition": 5015, "yourself": 5016, "blows": 5017, "delf": 5018, "stripped": 5019, "garments": 5020, "feather": 5021, "weights": 5022, "involve": 5023, "revolvin": 5024, "dilute": 5025, "solvin": 5026, "quoted": 5027, "whispered": 5028, "blazed": 5029, "jackets": 5030, "llah": 5031, "amputate": 5032, "god@@": 5033, "len": 5034, "ax": 5035, "rover": 5036, "bel": 5037, "spies": 5038, "folder": 5039, "gunner": 5040, "choke": 5041, "drummer": 5042, "runner": 5043, "snatched": 5044, "feat": 5045, "mil": 5046, "fri@@": 5047, "bounded": 5048, "teeth": 5049, "carpool": 5050, "stool": 5051, "underworld": 5052, "trace": 5053, "edged": 5054, "tec": 5055, "stopping": 5056, "egg": 5057, "medication": 5058, "suffering": 5059, "sanitation": 5060, "stuffing": 5061, "hustled": 5062, "oil": 5063, "supplier": 5064, "lava": 5065, "phoenix": 5066, "liars": 5067, "crossfire": 5068, "lazy": 5069, "hopscotch": 5070, "knuckleheads": 5071, "franchise": 5072, "bulls": 5073, "jewelry": 5074, "fabulous": 5075, "ahh": 5076, "bakery": 5077, "bike": 5078, "riot": 5079, "pour": 5080, "undivided": 5081, "invited": 5082, "heartfelt": 5083, "letter": 5084, "green@@": 5085, "anything": 5086, "gigolo": 5087, "big@@": 5088, "alow": 5089, "working": 5090, "posted": 5091, "site": 5092, "cigarette": 5093, "flippin": 5094, "guest": 5095, "flexin": 5096, "marshal": 5097, "padlock": 5098, "exits": 5099, "ds": 5100, "stink": 5101, "wreak": 5102, "dames": 5103, "clean": 5104, "bride": 5105, "bling": 5106, "motivated": 5107, "brings": 5108, "fetish": 5109, "athletic": 5110, "cosme@@": 5111, "tics": 5112, "bowlegged": 5113, "smarts": 5114, "credit": 5115, "actin": 5116, "headed": 5117, "whats": 5118, "dy@@": 5119, "womans": 5120, "wife": 5121, "tonight": 5122, "curls": 5123, "precious": 5124, "pearl": 5125, "dress": 5126, "treat": 5127, "freak": 5128, "diva": 5129, "devour": 5130, "scout": 5131, "boo": 5132, "fireplace": 5133, "closet": 5134, "video@@": 5135, "skate": 5136, "clever": 5137, "drinkin": 5138, "whatever": 5139, "knowing": 5140, "ripped": 5141, "drum": 5142, "goons": 5143, "hello": 5144, "waving": 5145, "aces": 5146, "cases": 5147, "language": 5148, "jeez": 5149, "chases": 5150, "favors": 5151, "brand": 5152, "filled": 5153, "separate": 5154, "gross": 5155, "boa@@": 5156, "whoever": 5157, "approach": 5158, "pressing": 5159, "plugs": 5160, "paying": 5161, "20k": 5162, "daylight": 5163, "compe@@": 5164, "squeal": 5165, "heal": 5166, "ol": 5167, "karma": 5168, "geez": 5169, "bla@@": 5170, "plo@@": 5171, "itation": 5172, "stereotype": 5173, "hat": 5174, "haze": 5175, "strapped": 5176, "spitter": 5177, "serve": 5178, "mankind": 5179, "hero": 5180, "ear": 5181, "hole": 5182, "terror": 5183, "files": 5184, "reconcile": 5185, "pedophile": 5186, "superfly": 5187, "oneal": 5188, "wheel": 5189, "riders": 5190, "blood@@": 5191, "jean": 5192, "claude": 5193, "creeps": 5194, "sweepin": 5195, "greed": 5196, "keeps": 5197, "feedin": 5198, "seekin": 5199, "spee@@": 5200, "nerve": 5201, "zonin": 5202, "huey": 5203, "malcolm": 5204, "mixed": 5205, "mark": 5206, "garvey": 5207, "sharpton": 5208, "kojak": 5209, "womack": 5210, "jim": 5211, "zero": 5212, "crowned": 5213, "renowned": 5214, "earlobe": 5215, "soakin": 5216, "dolemite": 5217, "afro": 5218, "picks": 5219, "flyin": 5220, "grandma": 5221, "greens": 5222, "projects": 5223, "woodwork": 5224, "bright": 5225, "bi@@": 5226, "ddin": 5227, "kno@@": 5228, "wns": 5229, "bullshit": 5230, "culprit": 5231, "yell": 5232, "freely": 5233, "greasy": 5234, "plantin": 5235, "mistake": 5236, "fee": 5237, "concern": 5238, "brothers": 5239, "slain": 5240, "suffered": 5241, "gain": 5242, "wants": 5243, "muscle": 5244, "hearted": 5245, "zombies": 5246, "departed": 5247, "eastwood": 5248, "gray": 5249, "stray": 5250, "decent": 5251, "travels": 5252, "acqu@@": 5253, "iring": 5254, "handful": 5255, "shaking": 5256, "gamble": 5257, "reward": 5258, "complain": 5259, "surely": 5260, "lesson": 5261, "diesel": 5262, "theyll": 5263, "amazed": 5264, "ches": 5265, "stays": 5266, "grabbing": 5267, "stance": 5268, "waited": 5269, "odds": 5270, "stacks": 5271, "blocking": 5272, "goose": 5273, "legit": 5274, "remained": 5275, "300": 5276, "spartan": 5277, "snipes": 5278, "aboard": 5279, "mor@@": 5280, "ga@@": 5281, "bor@@": 5282, "genera@@": 5283, "biz": 5284, "case": 5285, "sprayed": 5286, "conversate": 5287, "pigs": 5288, "nigs": 5289, "office": 5290, "spotted": 5291, "offshore": 5292, "bosses": 5293, "schemes": 5294, "regu@@": 5295, "lators": 5296, "eating": 5297, "everday": 5298, "stings": 5299, "lurking": 5300, "kna@@": 5301, "icey": 5302, "wheeling": 5303, "sneaks": 5304, "throws": 5305, "grinding": 5306, "week": 5307, "bank": 5308, "shank": 5309, "tanks": 5310, "pockets": 5311, "lifers": 5312, "thrown": 5313, "scared": 5314, "bm": 5315, "savings": 5316, "atm": 5317, "kicking": 5318, "snuffed": 5319, "bruised": 5320, "unplug": 5321, "bounce": 5322, "emergency": 5323, "wound": 5324, "thrill": 5325, "sidney": 5326, "crib": 5327, "ecstacy": 5328, "jiggy": 5329, "squea@@": 5330, "led": 5331, "scoping": 5332, "rusty": 5333, "ballers": 5334, "bubbly": 5335, "field": 5336, "wolfpack": 5337, "claws": 5338, "mill": 5339, "ducking": 5340, "tossin": 5341, "jacks": 5342, "burned": 5343, "magnet": 5344, "avenues": 5345, "cali": 5346, "grips": 5347, "berettas": 5348, "nappy": 5349, "wrist": 5350, "youngns": 5351, "graveyard": 5352, "split": 5353, "gorillas": 5354, "direct": 5355, "trynna": 5356, "yay": 5357, "foulest": 5358, "bolo": 5359, "solo": 5360, "strip": 5361, "knuckles": 5362, "fresh": 5363, "lik": 5364, "supper": 5365, "ware": 5366, "cannibal": 5367, "effect": 5368, "reel": 5369, "peelin": 5370, "wheelin": 5371, "vette": 5372, "scoop": 5373, "downtown": 5374, "cts": 5375, "mash": 5376, "stacking": 5377, "chips": 5378, "packing": 5379, "inmate": 5380, "dues": 5381, "chainsaw": 5382, "foaming": 5383, "squeezing": 5384, "beans": 5385, "smugg@@": 5386, "innocent": 5387, "evidence": 5388, "insi@@": 5389, "fingerprints": 5390, "traced": 5391, "testify": 5392, "payroll": 5393, "prior": 5394, "dismissed": 5395, "fra@@": 5396, "me@@": 5397, "somehow": 5398, "ahold": 5399, "flick": 5400, "blown": 5401, "jetted": 5402, "socks": 5403, "boxers": 5404, "undercover": 5405, "chased": 5406, "ceased": 5407, "brick": 5408, "dig": 5409, "tunnel": 5410, "jailhouse": 5411, "framed": 5412, "cuffed": 5413, "somebody": 5414, "00": 5415, "woke": 5416, "ly@@": 5417, "fudd": 5418, "description": 5419, "slugs": 5420, "aligned": 5421, "climbin": 5422, "scapegoat": 5423, "alliance": 5424, "grimy": 5425, "schemin": 5426, "shines": 5427, "balls": 5428, "bargain": 5429, "coppin": 5430, "lampin": 5431, "kim": 5432, "guzzle": 5433, "cris": 5434, "problems": 5435, "robbed": 5436, "98": 5437, "handgun": 5438, "revolver": 5439, "skated": 5440, "verdict": 5441, "cryin": 5442, "buggin": 5443, "bai@@": 5444, "liffs": 5445, "seventh": 5446, "episode": 5447, "dad": 5448, "grain": 5449, "151": 5450, "sho@@": 5451, "tting": 5452, "broadway": 5453, "vick": 5454, "became": 5455, "persuade": 5456, "chasing": 5457, "booze": 5458, "tango": 5459, "playing": 5460, "neon": 5461, "stepping": 5462, "dons": 5463, "cons": 5464, "daddies": 5465, "johns": 5466, "involved": 5467, "addicted": 5468, "ged": 5469, "risked": 5470, "slapped": 5471, "perfection": 5472, "sleepless": 5473, "vampire": 5474, "ups": 5475, "catching": 5476, "alright": 5477, "hustling": 5478, "considered": 5479, "budd@@": 5480, "grave": 5481, "destined": 5482, "astray": 5483, "sheep": 5484, "situations": 5485, "yankee": 5486, "list": 5487, "basement": 5488, "prototype": 5489, "phenom": 5490, "recon": 5491, "industry": 5492, "entity": 5493, "remedy": 5494, "chemi@@": 5495, "sty": 5496, "synergy": 5497, "meant": 5498, "vein": 5499, "crack": 5500, "twelves": 5501, "dubs": 5502, "females": 5503, "stunting": 5504, "blunted": 5505, "buzzed": 5506, "piff": 5507, "rp": 5508, "trilogy": 5509, "heartbeat": 5510, "moshpit": 5511, "saddam": 5512, "hottest": 5513, "torch": 5514, "arsonist": 5515, "roid": 5516, "fran@@": 5517, "bong": 5518, "hash": 5519, "concrete": 5520, "thunder@@": 5521, "ist": 5522, "busting": 5523, "loving": 5524, "surviva@@": 5525, "wireless": 5526, "pirate": 5527, "virus": 5528, "signed": 5529, "ct": 5530, "lettin": 5531, "homage": 5532, "lying": 5533, "applies": 5534, "distraction": 5535, "wounded": 5536, "steven": 5537, "trenches": 5538, "rockets": 5539, "glare": 5540, "bursting": 5541, "rebels": 5542, "hoodies": 5543, "appeal": 5544, "marvel": 5545, "luck": 5546, "dozen": 5547, "mink": 5548, "thinks": 5549, "post": 5550, "mosh": 5551, "units": 5552, "commercial": 5553, "support": 5554, "corporate": 5555, "politics": 5556, "soundscan": 5557, "rigged": 5558, "contracts": 5559, "fixed": 5560, "sit": 5561, "grime": 5562, "exist": 5563, "legendary": 5564, "reveal": 5565, "asking": 5566, "handling": 5567, "hugging": 5568, "shower": 5569, "angel": 5570, "covered": 5571, "sauce": 5572, "br@@": 5573, "ough": 5574, "lions": 5575, "apes": 5576, "time@@": 5577, "dumping": 5578, "estate": 5579, "cards": 5580, "donnie": 5581, "duct": 5582, "running": 5583, "han@@": 5584, "ffs": 5585, "carlton": 5586, "fisk": 5587, "try@@": 5588, "squads": 5589, "soulful": 5590, "singer": 5591, "swinger": 5592, "rin@@": 5593, "gers": 5594, "reputation": 5595, "jeffrey": 5596, "dahmer": 5597, "leech": 5598, "retire": 5599, "pizza": 5600, "pie": 5601, "stories": 5602, "format": 5603, "door@@": 5604, "2s": 5605, "file": 5606, "taxes": 5607, "cru@@": 5608, "filling": 5609, "blunts": 5610, "thugging": 5611, "nicks": 5612, "embraced": 5613, "hoping": 5614, "youngings": 5615, "handcuffed": 5616, "thi@@": 5617, "dwelling": 5618, "safer": 5619, "obama": 5620, "doubted": 5621, "couple": 5622, "housing": 5623, "seeing": 5624, "believing": 5625, "curb": 5626, "sherm": 5627, "herbs": 5628, "pause": 5629, "seventy": 5630, "mack": 5631, "trucks": 5632, "types": 5633, "roy": 5634, "forgot": 5635, "su@@": 5636, "tten": 5637, "trickin": 5638, "spazzin": 5639, "cab": 5640, "slaughter": 5641, "inch": 5642, "illumin@@": 5643, "ot": 5644, "map": 5645, "treasure": 5646, "chest": 5647, "attached": 5648, "forty": 5649, "acres": 5650, "mule": 5651, "sawed": 5652, "media": 5653, "hype": 5654, "heist": 5655, "sliced": 5656, "parasite": 5657, "blinded": 5658, "ripe": 5659, "lent": 5660, "cope": 5661, "slowin": 5662, "jeeps": 5663, "ownin": 5664, "chasin": 5665, "vibrate": 5666, "tri@@": 5667, "que": 5668, "grill": 5669, "vegas": 5670, "hats": 5671, "boots": 5672, "con": 5673, "schoolin": 5674, "newborns": 5675, "mommy": 5676, "outfit": 5677, "aside": 5678, "mesmerized": 5679, "screamin": 5680, "pitched": 5681, "cheques": 5682, "yac": 5683, "stretched": 5684, "purple": 5685, "glimpse": 5686, "peel": 5687, "fugitives": 5688, "arabs": 5689, "fag": 5690, "ha@@": 5691, "cooking": 5692, "casket": 5693, "tags": 5694, "glad": 5695, "grasp": 5696, "jag": 5697, "flap": 5698, "drippin": 5699, "limpin": 5700, "gged": 5701, "bagged": 5702, "shitting": 5703, "pressures": 5704, "beefing": 5705, "arguing": 5706, "coupe": 5707, "magnum": 5708, "steppin": 5709, "ciara": 5710, "blackout": 5711, "sti@@": 5712, "ffy": 5713, "baggin": 5714, "warn": 5715, "collision": 5716, "grippin": 5717, "cordless": 5718, "swordfish": 5719, "fifths": 5720, "dicks": 5721, "smacking": 5722, "willie": 5723, "mashing": 5724, "attract": 5725, "rugers": 5726, "pusher": 5727, "spraying": 5728, "hearse": 5729, "modern": 5730, "langston": 5731, "hughes": 5732, "banged": 5733, "anda": 5734, "environment": 5735, "waive": 5736, "pr@@": 5737, "blessings": 5738, "hated": 5739, "presidents": 5740, "brotha": 5741, "residence": 5742, "enormous": 5743, "ends": 5744, "author": 5745, "praise": 5746, "due": 5747, "shouldnt": 5748, "shitty": 5749, "prada": 5750, "violent": 5751, "less": 5752, "guidance": 5753, "bidding": 5754, "wiser": 5755, "giant": 5756, "dudes": 5757, "liver": 5758, "base": 5759, "wildest": 5760, "shotsll": 5761, "fitted": 5762, "copsll": 5763, "acquitted": 5764, "dolo": 5765, "acting": 5766, "after@@": 5767, "generals": 5768, "defeated": 5769, "frequent": 5770, "suppose": 5771, "trial": 5772, "bail": 5773, "eighty": 5774, "prayer": 5775, "surfing": 5776, "drug": 5777, "sites": 5778, "meeting": 5779, "regard": 5780, "root": 5781, "fu@@": 5782, "fruits": 5783, "shing": 5784, "fashion": 5785, "gui@@": 5786, "model": 5787, "molotov": 5788, "tank": 5789, "safety": 5790, "graders": 5791, "today": 5792, "yesterday": 5793, "alcoholic": 5794, "crips": 5795, "bloods": 5796, "dippin": 5797, "buds": 5798, "mug": 5799, "brave": 5800, "nother": 5801, "wantin": 5802, "flossin": 5803, "stake": 5804, "bake": 5805, "knife": 5806, "throat": 5807, "divi@@": 5808, "des": 5809, "cake": 5810, "hustlers": 5811, "thieves": 5812, "shifty": 5813, "sortin": 5814, "quickly": 5815, "day@@": 5816, "bought": 5817, "fur@@": 5818, "rows": 5819, "codefen@@": 5820, "dant": 5821, "exposed": 5822, "despite": 5823, "hustlin": 5824, "comple@@": 5825, "scam": 5826, "ballin": 5827, "eatin": 5828, "ebonics": 5829, "rolls": 5830, "solar": 5831, "powdered": 5832, "makes": 5833, "middle": 5834, "sizzle": 5835, "litt@@": 5836, "lest": 5837, "foreigners": 5838, "furious": 5839, "sauna": 5840, "trick": 5841, "friend@@": 5842, "porsche": 5843, "kay@@": 5844, "04": 5845, "pepper": 5846, "cameras": 5847, "nextel": 5848, "lips": 5849, "overnight": 5850, "bagging": 5851, "extra": 5852, "clicks": 5853, "infer@@": 5854, "sub@@": 5855, "mini": 5856, "pumping": 5857, "negative": 5858, "some@@": 5859, "hallway": 5860, "engine": 5861, "itself": 5862, "fitteds": 5863, "bombing": 5864, "moms": 5865, "blat": 5866, "backpack": 5867, "keeper": 5868, "mom": 5869, "ruckus": 5870, "sparking": 5871, "baddest": 5872, "smartest": 5873, "regards": 5874, "icons": 5875, "motherfuckers": 5876, "bats": 5877, "ratchets": 5878, "machetes": 5879, "assault": 5880, "hardly": 5881, "argument": 5882, "petty": 5883, "recite": 5884, "medley": 5885, "bananas": 5886, "ammo": 5887, "wedgie": 5888, "liable": 5889, "expect": 5890, "stealth": 5891, "freddy": 5892, "facial": 5893, "expression": 5894, "horror": 5895, "expre@@": 5896, "sses": 5897, "moral": 5898, "questions": 5899, "voices": 5900, "shouting": 5901, "fuckers": 5902, "axle": 5903, "ssi@@": 5904, "dilated": 5905, "pupils": 5906, "po@@": 5907, "odles": 5908, "cougars": 5909, "maneuvers": 5910, "tangle": 5911, "mane": 5912, "dam@@": 5913, "kno": 5914, "choppers": 5915, "thangs": 5916, "explain": 5917, "shout": 5918, "nd": 5919, "thrills": 5920, "hotter": 5921, "brains": 5922, "drills": 5923, "portion": 5924, "locks": 5925, "flier": 5926, "guys": 5927, "demise": 5928, "usual": 5929, "suspects": 5930, "kurupt": 5931, "messin": 5932, "weapon@@": 5933, "helped": 5934, "mothafuckas": 5935, "spring": 5936, "brownsville": 5937, "stapleton": 5938, "crenshaw": 5939, "pocus": 5940, "abdomen": 5941, "crawled": 5942, "stabbed": 5943, "returns": 5944, "revolution": 5945, "televised": 5946, "orders": 5947, "torah": 5948, "months": 5949, "europe": 5950, "term": 5951, "curl": 5952, "cheddar": 5953, "couches": 5954, "stretching": 5955, "ounces": 5956, "baking": 5957, "boston": 5958, "manhattan": 5959, "scra@@": 5960, "materiali@@": 5961, "sm": 5962, "ratchet": 5963, "fearing": 5964, "blackness": 5965, "drift": 5966, "passing": 5967, "stainless": 5968, "rust": 5969, "pillow": 5970, "soaking": 5971, "steaming": 5972, "demons": 5973, "biblical": 5974, "teaching": 5975, "ditch": 5976, "inspe@@": 5977, "sniffing": 5978, "bitching": 5979, "crying": 5980, "serena": 5981, "mo@@": 5982, "bonita": 5983, "receivers": 5984, "infect": 5985, "claiming": 5986, "swerve": 5987, "bikes": 5988, "basi@@": 5989, "meanwhile": 5990, "casino": 5991, "gambling": 5992, "multi": 5993, "scent": 5994, "drench": 5995, "alibi": 5996, "outfits": 5997, "flavors": 5998, "handmade": 5999, "ker@@": 6000, "chiefs": 6001, "bottles": 6002, "celebrating": 6003, "choppa": 6004, "cla@@": 6005, "ppa": 6006, "bur@@": 6007, "tradition": 6008, "duffle": 6009, "bott@@": 6010, "woken": 6011, "doo": 6012, "milit@@": 6013, "arys": 6014, "poisonous": 6015, "promoters": 6016, "asia": 6017, "medallions": 6018, "shogun": 6019, "jacob": 6020, "jeweler": 6021, "tennis": 6022, "bracelet": 6023, "sunny": 6024, "dave": 6025, "dreamed": 6026, "awoke": 6027, "pon@@": 6028, "scopin": 6029, "needs": 6030, "agreed": 6031, "tie": 6032, "chin@@": 6033, "1@@": 6034, "chokehold": 6035, "lds": 6036, "hard@@": 6037, "starving": 6038, "obvious": 6039, "raging": 6040, "vow": 6041, "striving": 6042, "payed": 6043, "odd@@": 6044, "manll": 6045, "conscience": 6046, "beggin": 6047, "chills": 6048, "so@@": 6049, "onll": 6050, "death@@": 6051, "setback": 6052, "por@@": 6053, "tier": 6054, "futures": 6055, "super@@": 6056, "mislead": 6057, "clueless": 6058, "choosin": 6059, "dropping": 6060, "cow": 6061, "conquest": 6062, "fighting": 6063, "programs": 6064, "channel": 6065, "jobs": 6066, "thell": 6067, "ay": 6068, "relax": 6069, "wanting": 6070, "pouring": 6071, "usually": 6072, "touring": 6073, "mj": 6074, "scoring": 6075, "fault": 6076, "issues": 6077, "situation": 6078, "difficult": 6079, "concerned": 6080, "sun@@": 6081, "gleamin": 6082, "messa@@": 6083, "ging": 6084, "fooling": 6085, "bay": 6086, "rarely": 6087, "lie": 6088, "woman": 6089, "troop@@": 6090, "girlfriends": 6091, "foolish": 6092, "finished": 6093, "strolling": 6094, "curve": 6095, "bat": 6096, "barry": 6097, "bonds": 6098, "cannons": 6099, "standing": 6100, "satans": 6101, "turning": 6102, "comic": 6103, "talents": 6104, "worse": 6105, "rank": 6106, "cursed": 6107, "seats": 6108, "leaning": 6109, "bmw": 6110, "gem@@": 6111, "stars": 6112, "splitting": 6113, "bringing": 6114, "showing": 6115, "quo@@": 6116, "ting": 6117, "revolvers": 6118, "makers": 6119, "breakers": 6120, "vati@@": 6121, "cans": 6122, "ages": 6123, "teams": 6124, "armored": 6125, "calf": 6126, "option": 6127, "ri@@": 6128, "cos": 6129, "sticking": 6130, "peephole": 6131, "generation": 6132, "legacy": 6133, "bum": 6134, "invaded": 6135, "battling": 6136, "mansions": 6137, "branson": 6138, "llo": 6139, "slash": 6140, "gene@@": 6141, "tle@@": 6142, "indians": 6143, "millennium": 6144, "criti@@": 6145, "gully": 6146, "wesley": 6147, "runway": 6148, "maker": 6149, "mer@@": 6150, "nay": 6151, "sayer": 6152, "performance": 6153, "enhanced": 6154, "trunk": 6155, "shed": 6156, "appears": 6157, "flo@@": 6158, "ated": 6159, "bed": 6160, "stair@@": 6161, "havin": 6162, "gaps": 6163, "suprised": 6164, "daughter": 6165, "bea@@": 6166, "ur@@": 6167, "ti@@": 6168, "ful": 6169, "besides": 6170, "wed": 6171, "disappear": 6172, "lega@@": 6173, "cys": 6174, "guess": 6175, "join": 6176, "upstairs": 6177, "despair": 6178, "latest": 6179, "airs": 6180, "fires": 6181, "gear": 6182, "totin": 6183, "lennox": 6184, "lexus": 6185, "pager": 6186, "ear@@": 6187, "nie": 6188, "yon": 6189, "lewis": 6190, "numbered": 6191, "sees": 6192, "struggled": 6193, "fightin": 6194, "single": 6195, "strugglin": 6196, "bit@@": 6197, "ters": 6198, "mmin": 6199, "blades": 6200, "nicolas": 6201, "maze": 6202, "slept": 6203, "trays": 6204, "kinda": 6205, "deniro": 6206, "burning": 6207, "serving": 6208, "cri@@": 6209, "splurging": 6210, "gorilla": 6211, "swerving": 6212, "wills": 6213, "limb": 6214, "conspire": 6215, "sliding": 6216, "benz": 6217, "ooh": 6218, "shoe": 6219, "graph": 6220, "snatchin": 6221, "having": 6222, "halls": 6223, "macking": 6224, "sending": 6225, "kite": 6226, "er": 6227, "al": 6228, "backin": 6229, "shaq": 6230, "fourth": 6231, "strongest": 6232, "quake": 6233, "ea@@": 6234, "gle@@": 6235, "peoples": 6236, "several": 6237, "tvs": 6238, "degrees": 6239, "leaking": 6240, "prophecy": 6241, "fulfilled": 6242, "surviving": 6243, "lowkey": 6244, "shifting": 6245, "pitching": 6246, "ps": 6247, "deeds": 6248, "freeze": 6249, "copper@@": 6250, "boppers": 6251, "thirds": 6252, "burnt": 6253, "herb": 6254, "circles": 6255, "nerves": 6256, "verge": 6257, "surge": 6258, "yachts": 6259, "dro": 6260, "hyp@@": 6261, "narc": 6262, "semis": 6263, "infrared": 6264, "jenni@@": 6265, "fers": 6266, "posting": 6267, "uniform": 6268, "suzu@@": 6269, "kis": 6270, "kawasa@@": 6271, "wheelie": 6272, "rollies": 6273, "spots": 6274, "coo@@": 6275, "justice": 6276, "keepin": 6277, "mistakes": 6278, "toes": 6279, "stepped": 6280, "ph@@": 6281, "lon": 6282, "methadone": 6283, "whenever": 6284, "harmed": 6285, "drun@@": 6286, "ks": 6287, "ghett@@": 6288, "oes": 6289, "beez": 6290, "shop": 6291, "chant": 6292, "victim": 6293, "circumstance": 6294, "dit@@": 6295, "kneel": 6296, "shipped": 6297, "poured": 6298, "overlookin": 6299, "bronx": 6300, "cuba": 6301, "gooding": 6302, "bookin": 6303, "via": 6304, "broadcast": 6305, "uses": 6306, "explainin": 6307, "excuses": 6308, "fellas": 6309, "pipes": 6310, "south": 6311, "each": 6312, "caress": 6313, "following": 6314, "coalition": 6315, "quittin": 6316, "inflict": 6317, "conviction": 6318, "bitchin": 6319, "vibes": 6320, "liar": 6321, "touched": 6322, "towns": 6323, "studio": 6324, "foe": 6325, "snitches": 6326, "waist": 6327, "designs": 6328, "waste": 6329, "smother": 6330, "realize": 6331, "357": 6332, "levis": 6333, "sippin": 6334, "bathroom": 6335, "strings": 6336, "guitar": 6337, "shutting": 6338, "tables": 6339, "per": 6340, "hating": 6341, "allowed": 6342, "played": 6343, "earned": 6344, "stripe": 6345, "colored": 6346, "wallet": 6347, "swiped": 6348, "toys": 6349, "confident": 6350, "ecstasy": 6351, "joy": 6352, "jects": 6353, "shirts": 6354, "flirtin": 6355, "dom": 6356, "segal": 6357, "gained": 6358, "phat": 6359, "stacked": 6360, "grindin": 6361, "rats": 6362, "thump": 6363, "junk": 6364, "security": 6365, "providin": 6366, "invite": 6367, "bluff": 6368, "cup": 6369, "hydro": 6370, "hatin": 6371, "prayin": 6372, "fits": 6373, "hug": 6374, "sway": 6375, "sermon": 6376, "turnin": 6377, "earnin": 6378, "puttin": 6379, "timbs": 6380, "ninja": 6381, "gripper": 6382, "suits": 6383, "flavor": 6384, "wrestler": 6385, "truce": 6386, "coups": 6387, "buggy": 6388, "blurry": 6389, "mid": 6390, "accolades": 6391, "lactose": 6392, "dose": 6393, "finger": 6394, "gall": 6395, "lands": 6396, "sacrifi@@": 6397, "demands": 6398, "searched": 6399, "provocative": 6400, "mirage": 6401, "span@@": 6402, "ned": 6403, "everybodys": 6404, "inventor": 6405, "arrangements": 6406, "bringin": 6407, "tints": 6408, "suspense": 6409, "tents": 6410, "rent": 6411, "percentage": 6412, "latch": 6413, "amount": 6414, "guarantee": 6415, "offense": 6416, "issue": 6417, "typical": 6418, "rituals": 6419, "indian": 6420, "abe": 6421, "gett@@": 6422, "burg": 6423, "galaxies": 6424, "aliens": 6425, "trend": 6426, "groin": 6427, "coin": 6428, "truly": 6429, "difference": 6430, "gut": 6431, "extras": 6432, "cess": 6433, "messed": 6434, "thrust": 6435, "duty": 6436, "zy": 6437, "cutie": 6438, "porn": 6439, "taxi": 6440, "mist": 6441, "noise": 6442, "whippin": 6443, "cherish": 6444, "al@@": 6445, "pines": 6446, "leavin": 6447, "politic": 6448, "monstrous": 6449, "gossip": 6450, "nur@@": 6451, "wounds": 6452, "shinin": 6453, "rhames": 6454, "macs": 6455, "packs": 6456, "leathers": 6457, "wool": 6458, "draw": 6459, "heats": 6460, "preach": 6461, "goal": 6462, "criminals": 6463, "static": 6464, "pimpin": 6465, "gorgeous": 6466, "porsches": 6467, "shootouts": 6468, "scarfaces": 6469, "fades": 6470, "hanging": 6471, "coat": 6472, "tails": 6473, "named": 6474, "tail": 6475, "scrambled": 6476, "reefer": 6477, "sneaker": 6478, "easter": 6479, "tally": 6480, "llamas": 6481, "flips": 6482, "rubber": 6483, "bs": 6484, "tter": 6485, "swallowin": 6486, "henn": 6487, "gators": 6488, "crocs": 6489, "wide@@": 6490, "diesll": 6491, "chameleon": 6492, "ops": 6493, "record": 6494, "dodgin": 6495, "narcs": 6496, "clown": 6497, "uptowns": 6498, "butt": 6499, "deaded": 6500, "gey": 6501, "bus": 6502, "buckshot": 6503, "duck": 6504, "pede@@": 6505, "motherfuckas": 6506, "knicks": 6507, "marbury": 6508, "chevy": 6509, "bleeding": 6510, "popped": 6511, "leary": 6512, "fer@@": 6513, "slinger": 6514, "ty": 6515, "stuy": 6516, "nickels": 6517, "kinds": 6518, "scramble": 6519, "knots": 6520, "alice": 6521, "joke": 6522, "marked": 6523, "uzis": 6524, "boondocks": 6525, "cabs": 6526, "peddlin": 6527, "direction": 6528, "filthy": 6529, "everyones": 6530, "shadow@@": 6531, "midtown": 6532, "hooker": 6533, "crafty": 6534, "hoe": 6535, "blimp": 6536, "wearin": 6537, "pimps": 6538, "ordinary": 6539, "prostitute": 6540, "madison": 6541, "labs": 6542, "acts": 6543, "expensive": 6544, "merchandise": 6545, "upper": 6546, "wrapped": 6547, "bands": 6548, "colder": 6549, "mill@@": 6550, "ant": 6551, "heals": 6552, "thief": 6553, "props": 6554, "citizen": 6555, "convictions": 6556, "stolen": 6557, "parkin": 6558, "screw@@": 6559, "driver": 6560, "chop": 6561, "macks": 6562, "chedd@@": 6563, "benzes": 6564, "lex@@": 6565, "es": 6566, "tenants": 6567, "organized": 6568, "pocket": 6569, "sni@@": 6570, "alarm": 6571, "ditty": 6572, "glock": 6573, "playas": 6574, "whores": 6575, "shopping": 6576, "cheese": 6577, "evergreen": 6578, "sm@@": 6579, "mountain": 6580, "dunks": 6581, "skunk": 6582, "phillies": 6583, "gwap": 6584, "gauge": 6585, "ac@@": 6586, "searching": 6587, "linens": 6588, "cro@@": 6589, "cks": 6590, "thick": 6591, "flocks": 6592, "cell@@": 6593, "prisoners": 6594, "smashed": 6595, "troops": 6596, "fruit": 6597, "knot": 6598, "gleam": 6599, "gleaming": 6600, "chea@@": 6601, "alot": 6602, "anytime": 6603, "grim": 6604, "reaper": 6605, "homicide": 6606, "ironic": 6607, "fights": 6608, "tom": 6609, "rushin": 6610, "shore": 6611, "escalade": 6612, "vital": 6613, "rat": 6614, "tat": 6615, "matchin": 6616, "counted": 6617, "stou@@": 6618, "hangin": 6619, "wes": 6620, "carrots": 6621, "chew": 6622, "fronts": 6623, "frauds": 6624, "lunch": 6625, "stunts": 6626, "bunch": 6627, "gang@@": 6628, "st": 6629, "evident": 6630, "v12": 6631, "clo@@": 6632, "ths": 6633, "wilding": 6634, "demanding": 6635, "slump": 6636, "shotty": 6637, "hiding": 6638, "horrific": 6639, "ggy": 6640, "coltrane": 6641, "mellow": 6642, "moods": 6643, "lap": 6644, "unexpected": 6645, "survival": 6646, "fittest": 6647, "dodge": 6648, "ninety": 6649, "dz": 6650, "ani@@": 6651, "maneuver": 6652, "tial": 6653, "hassle": 6654, "grizzly": 6655, "fizzy": 6656, "tery": 6657, "faggots": 6658, "sheets": 6659, "asleep": 6660, "rebu@@": 6661, "brainstorm": 6662, "sentiments": 6663, "imagining": 6664, "vain": 6665, "negle@@": 6666, "cting": 6667, "sava@@": 6668, "wankstas": 6669, "plain": 6670, "tao": 6671, "zine": 6672, "solomon": 6673, "justified": 6674, "altar": 6675, "false@@": 6676, "fal@@": 6677, "sour@@": 6678, "cer": 6679, "chambers": 6680, "sample": 6681, "scratched": 6682, "president": 6683, "relate": 6684, "debate": 6685, "nueve": 6686, "tres": 6687, "dea@@": 6688, "gle": 6689, "pete": 6690, "techno": 6691, "wheels": 6692, "damned": 6693, "bro@@": 6694, "smuggle": 6695, "upset": 6696, "shits": 6697, "drag": 6698, "goo@@": 6699, "harbor": 6700, "bloo@@": 6701, "ming@@": 6702, "goon@@": 6703, "berg": 6704, "clout": 6705, "gran@@": 6706, "sand@@": 6707, "ts": 6708, "pants": 6709, "sag": 6710, "scu@@": 6711, "wolf@@": 6712, "kobe": 6713, "buzzer": 6714, "dumbin": 6715, "dumbest": 6716, "sportin": 6717, "daydream": 6718, "crip": 6719, "gives": 6720, "escaping": 6721, "confrontation": 6722, "defendants": 6723, "scramblers": 6724, "wai@@": 6725, "candles": 6726, "fiendin": 6727, "meals": 6728, "murk": 6729, "disperse": 6730, "quietly": 6731, "banging": 6732, "process": 6733, "oni@@": 6734, "das": 6735, "nearly": 6736, "cried": 6737, "competing": 6738, "wondered": 6739, "skipping": 6740, "muthafuckas": 6741, "globally": 6742, "local": 6743, "mogul": 6744, "vo@@": 6745, "faking": 6746, "ad": 6747, "discussion": 6748, "dumbing": 6749, "barking": 6750, "gg@@": 6751, "cartridge": 6752, "hannibal": 6753, "facing": 6754, "eighteen": 6755, "mud": 6756, "greats": 6757, "ape": 6758, "kirk": 6759, "uds": 6760, "fes": 6761, "streetsll": 6762, "glue": 6763, "sinking": 6764, "fixing": 6765, "yapping": 6766, "thinking": 6767, "speaking": 6768, "villains": 6769, "revealed": 6770, "magic": 6771, "witchcraft": 6772, "voodoo": 6773, "lived": 6774, "faith": 6775, "health": 6776, "begin": 6777, "peeling": 6778, "birthplace": 6779, "willing": 6780, "fore": 6781, "urp": 6782, "mickey": 6783, "dub": 6784, "sacks": 6785, "ko@@": 6786, "developing": 6787, "koda@@": 6788, "enga@@": 6789, "ge@@": 6790, "end@@": 6791, "sis": 6792, "tits": 6793, "bad@@": 6794, "felons": 6795, "sadness": 6796, "livest": 6797, "christi@@": 6798, "walken": 6799, "resort": 6800, "grieving": 6801, "anywhere": 6802, "gottis": 6803, "fisher@@": 6804, "drooling": 6805, "poppa": 6806, "stroke": 6807, "bing": 6808, "skywalker": 6809, "cruise": 6810, "cakes": 6811, "fives": 6812, "mami": 6813, "cutting": 6814, "attachments": 6815, "best@@": 6816, "pep": 6817, "cking": 6818, "charm": 6819, "cry@@": 6820, "dancing": 6821, "unda": 6822, "read": 6823, "teenage": 6824, "laying": 6825, "dumpster": 6826, "begged": 6827, "forgiveness": 6828, "stressed": 6829, "voting": 6830, "barack": 6831, "bugging": 6832, "pres": 6833, "cater": 6834, "labeled": 6835, "garbage": 6836, "rising": 6837, "ash": 6838, "trade": 6839, "man@@": 6840, "heading": 6841, "rob": 6842, "manny": 6843, "rys": 6844, "heir": 6845, "hearing": 6846, "alu@@": 6847, "ha": 6848, "loser": 6849, "doo@@": 6850, "lah": 6851, "schooler": 6852, "manu@@": 6853, "cooler": 6854, "fails": 6855, "moonwalking": 6856, "sand": 6857, "godzilla": 6858, "charged": 6859, "camouflage": 6860, "lla": 6861, "clif@@": 6862, "powell": 6863, "grammar": 6864, "vanna": 6865, "vowel": 6866, "pitch": 6867, "skating": 6868, "aka": 6869, "brigade": 6870, "jaguar": 6871, "snitching": 6872, "cloth": 6873, "blend": 6874, "rims": 6875, "caused": 6876, "lens": 6877, "using": 6878, "kush": 6879, "near@@": 6880, "comb": 6881, "hundreds": 6882, "crossing": 6883, "stoney": 6884, "headcrack": 6885, "kimora": 6886, "theme": 6887, "stealing": 6888, "oak": 6889, "driveway": 6890, "oleum": 6891, "kitchen": 6892, "plasma": 6893, "maid": 6894, "nino": 6895, "growing": 6896, "dim": 6897, "whoa": 6898, "twirl": 6899, "owe": 6900, "except": 6901, "debit": 6902, "skirt": 6903, "naked": 6904, "tted": 6905, "breathless": 6906, "be@@": 6907, "role@@": 6908, "tel": 6909, "pushed": 6910, "reggae": 6911, "lawn": 6912, "peach": 6913, "stockings": 6914, "shred": 6915, "smacked": 6916, "bulging": 6917, "intervene": 6918, "needle": 6919, "bopping": 6920, "psalms": 6921, "ppable": 6922, "teacher": 6923, "envir@@": 6924, "cruel": 6925, "thirteen": 6926, "buddha": 6927, "sacrifice": 6928, "tumble": 6929, "humble": 6930, "bundles": 6931, "spine": 6932, "coppers": 6933, "solve": 6934, "worldll": 6935, "awake": 6936, "cigars": 6937, "jars": 6938, "comrades": 6939, "cowards": 6940, "boiling": 6941, "gram": 6942, "ssman": 6943, "hogging": 6944, "dip": 6945, "jive": 6946, "tires": 6947, "ade": 6948, "mobster": 6949, "brims": 6950, "quarters": 6951, "taurus": 6952, "spitting": 6953, "soprano": 6954, "outro": 6955, "bids": 6956, "fiending": 6957, "chappelle": 6958, "baked": 6959, "kes": 6960, "takes": 6961, "breaks": 6962, "fader": 6963, "fascinate": 6964, "caper": 6965, "bobbin": 6966, "slug": 6967, "spillin": 6968, "25s": 6969, "finest": 6970, "designer": 6971, "midas": 6972, "boppin": 6973, "nail": 6974, "loons": 6975, "barbershops": 6976, "talks": 6977, "commands": 6978, "walks": 6979, "fought": 6980, "baggy": 6981, "sexist": 6982, "cam": 6983, "follower": 6984, "gopher": 6985, "missiles": 6986, "discuss": 6987, "posts": 6988, "linked": 6989, "felon": 6990, "paro@@": 6991, "lee": 6992, "mobbin": 6993, "vinny": 6994, "swear": 6995, "backyard": 6996, "handcuffs": 6997, "diss": 6998, "tap": 6999, "birthday": 7000, "amped": 7001, "smile": 7002, "added": 7003, "sexy": 7004, "holes": 7005, "spin@@": 7006, "ap": 7007, "squat": 7008, "tae": 7009, "bo": 7010, "sack": 7011, "nap": 7012, "beg": 7013, "drawers": 7014, "lockjaw": 7015, "straw": 7016, "haul": 7017, "pool": 7018, "backing": 7019, "malt": 7020, "arcade": 7021, "detention": 7022, "medical": 7023, "sweater": 7024, "cliques": 7025, "grooves": 7026, "pall@@": 7027, "bears": 7028, "swung": 7029, "tysons": 7030, "tees": 7031, "shorts": 7032, "dikes": 7033, "flyest": 7034, "seaters": 7035, "duece": 7036, "tube": 7037, "speakers": 7038, "nuthin": 7039, "zs": 7040, "fries": 7041, "raunchy": 7042, "vay": 7043, "poppy": 7044, "offa": 7045, "jacket": 7046, "louis": 7047, "sto@@": 7048, "paparazzi": 7049, "morning": 7050, "doors": 7051, "ador@@": 7052, "fla@@": 7053, "balling": 7054, "redbone": 7055, "halter": 7056, "blouse": 7057, "louder": 7058, "hula": 7059, "hoop": 7060, "zoo@@": 7061, "misbehaving": 7062, "bodyguard": 7063, "wild@@": 7064, "steer": 7065, "wheres": 7066, "hopped": 7067, "sizzurp": 7068, "saddest": 7069, "breathing": 7070, "nowhere": 7071, "romans": 7072, "ballas": 7073, "dru@@": 7074, "eling": 7075, "kers": 7076, "pounded": 7077, "chalk": 7078, "fallout": 7079, "den@@": 7080, "paper@@": 7081, "amounts": 7082, "tenth": 7083, "blo@@": 7084, "wers": 7085, "hazed": 7086, "posing": 7087, "uni@@": 7088, "puffin": 7089, "threes": 7090, "putting": 7091, "tigers": 7092, "wilderness": 7093, "scrap": 7094, "clapped": 7095, "sidewalk": 7096, "blueberry": 7097, "dred": 7098, "threads": 7099, "fur": 7100, "crawl": 7101, "cd": 7102, "defin@@": 7103, "tly": 7104, "locs": 7105, "gliding": 7106, "shreds": 7107, "superman": 7108, "caked": 7109, "radiator": 7110, "semen": 7111, "title": 7112, "babies": 7113, "prayed": 7114, "burden": 7115, "growin": 7116, "sc@@": 7117, "ceiling": 7118, "buildings": 7119, "sin@@": 7120, "yah": 7121, "surprised": 7122, "decision": 7123, "fork": 7124, "simmer": 7125, "hella": 7126, "shimmy": 7127, "swishers": 7128, "licorice": 7129, "ish": 7130, "bored": 7131, "dyke": 7132, "leadin": 7133, "print": 7134, "lyrics": 7135, "ju": 7136, "okay": 7137, "beatles": 7138, "reduction": 7139, "finale": 7140, "rally": 7141, "vaca@@": 7142, "yd": 7143, "irony": 7144, "par": 7145, "standards": 7146, "pampered": 7147, "threesomes": 7148, "berry": 7149, "hallelujah": 7150, "vigilante": 7151, "missionary": 7152, "cemetery": 7153, "obituaries": 7154, "os": 7155, "account": 7156, "transition": 7157, "lamborghini": 7158, "mustang": 7159, "goyard": 7160, "che@@": 7161, "ffin": 7162, "yar": 7163, "dee": 7164, "ty@@": 7165, "ard": 7166, "braids": 7167, "bogart": 7168, "pros": 7169, "ched": 7170, "tag": 7171, "skateboard": 7172, "mmm": 7173, "ballpark": 7174, "blindfold": 7175, "bark": 7176, "banana": 7177, "shirt": 7178, "traits": 7179, "traumatized": 7180, "dap": 7181, "posters": 7182, "metamor@@": 7183, "ph": 7184, "pretend": 7185, "vulture": 7186, "cliff": 7187, "aha": 7188, "extraordinary": 7189, "swag": 7190, "strippin": 7191, "glock@@": 7192, "cowboy": 7193, "rockstar": 7194, "basics": 7195, "maison": 7196, "margielas": 7197, "laces": 7198, "cristal": 7199, "racist": 7200, "prefer": 7201, "understatement": 7202, "rari": 7203, "favorite": 7204, "brainless": 7205, "miscellaneous": 7206, "zags": 7207, "riff": 7208, "raff": 7209, "wakin": 7210, "sink": 7211, "loafers": 7212, "compliment": 7213, "chink": 7214, "dank": 7215, "kissin": 7216, "billy": 7217, "gates": 7218, "condo": 7219, "motorboat": 7220, "hurting": 7221, "outs": 7222, "loaded": 7223, "stock": 7224, "barrels": 7225, "glowing": 7226, "climbing": 7227, "dior": 7228, "velour": 7229, "create": 7230, "dresser": 7231, "expose": 7232, "sta": 7233, "ssa": 7234, "syrup": 7235, "switching": 7236, "lanes": 7237, "prolly": 7238, "sers": 7239, "pay@@": 7240, "stubs": 7241, "sprite": 7242, "polite": 7243, "finna": 7244, "froggy": 7245, "leap": 7246, "critics": 7247, "skri@@": 7248, "llex": 7249, "trillest": 7250, "disrespectful": 7251, "baby@@": 7252, "swallowed": 7253, "mac": 7254, "tats": 7255, "punk": 7256, "dreamin": 7257, "benjamin": 7258, "ou": 7259, "harlems": 7260, "disrespected": 7261, "connected": 7262, "imported": 7263, "important": 7264, "impressive": 7265, "necklace": 7266, "impressed": 7267, "freshest": 7268, "raf": 7269, "simons": 7270, "doobies": 7271, "boobies": 7272, "blessing": 7273, "pesos": 7274, "agree": 7275, "keys": 7276, "graduate": 7277, "knocks": 7278, "cs": 7279, "stevie": 7280, "sleeve": 7281, "import": 7282, "export": 7283, "harlem": 7284, "dimension": 7285, "imprisoned": 7286, "ballistic": 7287, "missin": 7288, "screws": 7289, "drillin": 7290, "wis@@": 7291, "mll": 7292, "switches": 7293, "ditches": 7294, "kisses": 7295, "ke@@": 7296, "plead": 7297, "devotion": 7298, "hopeless": 7299, "poet": 7300, "hypnosis": 7301, "potions": 7302, "adjustin": 7303, "motions": 7304, "emotions": 7305, "september": 7306, "misfits": 7307, "glist": 7308, "mood": 7309, "nag": 7310, "chillin": 7311, "flacko": 7312, "legally": 7313, "decide": 7314, "facade": 7315, "love@@": 7316, "chirpin": 7317, "trendy": 7318, "swagging": 7319, "dolce": 7320, "gabbana": 7321, "escada": 7322, "balenciaga": 7323, "aunt": 7324, "jemima": 7325, "shoppin": 7326, "manana": 7327, "rihanna": 7328, "madonna": 7329, "trippy": 7330, "nirvana": 7331, "hel@@": 7332, "mut": 7333, "lang": 7334, "alexander": 7335, "wang": 7336, "newest": 7337, "karan": 7338, "cartier": 7339, "frames": 7340, "ul@@": 7341, "tiers": 7342, "j@@": 7343, "sanders": 7344, "oliver": 7345, "costume": 7346, "national": 7347, "ann": 7348, "mee@@": 7349, "vis@@": 7350, "lan@@": 7351, "balmain": 7352, "isa@@": 7353, "linda": 7354, "adore": 7355, "dami@@": 7356, "ven@@": 7357, "bossy": 7358, "thom": 7359, "brow@@": 7360, "versace": 7361, "flyer": 7362, "spikes": 7363, "patent": 7364, "fabrics": 7365, "clashing": 7366, "thra@@": 7367, "someone": 7368, "expressed": 7369, "bumpin": 7370, "lsd": 7371, "introduced": 7372, "crave": 7373, "sharin": 7374, "loss": 7375, "feelings": 7376, "gimmicks": 7377, "figured": 7378, "drinking": 7379, "driving": 7380, "weathers": 7381, "duh": 7382, "reminiscin": 7383, "foreplay": 7384, "boomin": 7385, "auntie": 7386, "seals": 7387, "trill": 7388, "jodye": 7389, "crossin": 7390, "handouts": 7391, "helpin": 7392, "stan": 7393, "thuggin": 7394, "shame": 7395, "adidas": 7396, "trappin": 7397, "beeper": 7398, "beep": 7399, "greet": 7400, "ink": 7401, "pad": 7402, "spelled": 7403, "scrutinized": 7404, "illuminati": 7405, "luci@@": 7406, "fied": 7407, "baptized": 7408, "sized": 7409, "basquiat": 7410, "capo": 7411, "follo@@": 7412, "colossal": 7413, "boxer": 7414, "pacquiao": 7415, "chopper": 7416, "todo": 7417, "gospel": 7418, "preacher": 7419, "jane": 7420, "notes": 7421, "rifle": 7422, "goodnight": 7423, "pen": 7424, "kurt": 7425, "cobain": 7426, "scrutinize": 7427, "christ": 7428, "lied": 7429, "crucified": 7430, "covers": 7431, "cup@@": 7432, "boards": 7433, "sucker": 7434, "wassup": 7435, "grills": 7436, "shining": 7437, "southern": 7438, "sippy": 7439, "cups": 7440, "diapers": 7441, "racin": 7442, "laps": 7443, "kettle": 7444, "male": 7445, "sy": 7446, "glistenin": 7447, "kitten": 7448, "roaches": 7449, "broo@@": 7450, "cuff": 7451, "tux": 7452, "chauffeur": 7453, "pullin": 7454, "ands": 7455, "buts": 7456, "paris": 7457, "trunks": 7458, "canal": 7459, "vintage": 7460, "medallion": 7461, "housin": 7462, "cuffs": 7463, "cartiers": 7464, "limits": 7465, "stickin": 7466, "film": 7467, "pic": 7468, "soda": 7469, "coca": 7470, "meetings": 7471, "mobile": 7472, "oval": 7473, "recordings": 7474, "sum": 7475, "performan@@": 7476, "ces": 7477, "forbes": 7478, "flawless": 7479, "corpses": 7480, "importance": 7481, "bits": 7482, "endorsements": 7483, "3k": 7484, "l@@": 7485, "ans": 7486, "stain": 7487, "lords": 7488, "losin": 7489, "blonde": 7490, "convin@@": 7491, "blinds": 7492, "yams": 7493, "margiela": 7494, "madman": 7495, "ago": 7496, "dominos": 7497, "ger@@": 7498, "adios": 7499, "vamonos": 7500, "domini@@": 7501, "cano": 7502, "pla@@": 7503, "dealing": 7504, "vlone": 7505, "spending": 7506, "buyin": 7507, "womens": 7508, "boring": 7509, "robbin": 7510, "boof": 7511, "flexing": 7512, "adjusting": 7513, "frontin": 7514, "wealth": 7515, "arrive": 7516, "debt": 7517, "promise": 7518, "partners": 7519, "bahamas": 7520, "barneys": 7521, "tailored": 7522, "codeine": 7523, "heater": 7524, "bruh": 7525, "nina": 7526, "proper": 7527, "terms": 7528, "shittin": 7529, "becomin": 7530, "excused": 7531, "bend": 7532, "nowadays": 7533, "bury": 7534, "victims": 7535, "getter": 7536, "slu@@": 7537, "ggin": 7538, "fussin": 7539, "buckin": 7540, "bussin": 7541, "robitussin": 7542, "gunplay": 7543, "outcast": 7544, "entree": 7545, "bombay": 7546, "monday": 7547, "feng": 7548, "shui": 7549, "cee": 7550, "hyundai": 7551, "rooftop": 7552, "bathe": 7553, "bougie": 7554, "toupees": 7555, "touche": 7556, "vogue": 7557, "symphony": 7558, "throwed": 7559, "dykes": 7560, "pissed": 7561, "coulda": 7562, "throwing": 7563, "tied": 7564, "jock": 7565, "stunner": 7566, "drank": 7567, "candy": 7568, "drip": 7569, "booty": 7570, "juicy": 7571, "fruity": 7572, "tipping": 7573, "texas": 7574, "boppas": 7575, "discussing": 7576, "papes": 7577, "potato": 7578, "draco": 7579, "stains": 7580, "squeaky": 7581, "dentures": 7582, "dentist": 7583, "benjis": 7584, "bentleys": 7585, "phantoms": 7586, "vegan": 7587, "ducked": 7588, "breezy": 7589, "dedicate": 7590, "hookah": 7591, "strollin": 7592, "woo@@": 7593, "bush@@": 7594, "ka": 7595, "poppers": 7596, "prostitu@@": 7597, "scammers": 7598, "boosters": 7599, "robber": 7600, "pearls": 7601, "excessive": 7602, "expected": 7603, "marijuana": 7604, "breastes": 7605, "propane": 7606, "cellphone": 7607, "dealer": 7608, "karats": 7609, "glitter": 7610, "shouts": 7611, "fuck@@": 7612, "pudding": 7613, "mean@@": 7614, "muggin": 7615, "hoodie": 7616, "goodie": 7617, "fullest": 7618, "motherfuck": 7619, "benzo": 7620, "bimbos": 7621, "kinfolk": 7622, "slows": 7623, "skeet": 7624, "ceilin": 7625, "payback": 7626, "buildin": 7627, "schoolboy": 7628, "jerk": 7629, "groovin": 7630, "notch": 7631, "instagram": 7632, "payments": 7633, "shouldntve": 7634, "smart": 7635, "cables": 7636, "weird": 7637, "matrix": 7638, "hiiipower": 7639, "prosper": 7640, "bit": 7641, "patience": 7642, "coochie": 7643, "popper": 7644, "promoting": 7645, "introduce": 7646, "sposed": 7647, "popcorn": 7648, "uhh": 7649, "crispy": 7650, "blocka": 7651, "satan": 7652, "minati": 7653, "looters": 7654, "ratatat": 7655, "kat": 7656, "behead": 7657, "uptight": 7658, "smiles": 7659, "pimping": 7660, "pumps": 7661, "shyne": 7662, "eazy": 7663, "crackers": 7664, "checkers": 7665, "cta@@": 7666, "girbaud": 7667, "hologram": 7668, "straps": 7669, "refle@@": 7670, "ctors": 7671, "cookouts": 7672, "sig": 7673, "snitched": 7674, "add": 7675, "crap": 7676, "mac@@": 7677, "penny": 7678, "sofa": 7679, "oprah": 7680, "spanish": 7681, "vio@@": 7682, "chocha": 7683, "testarossa": 7684, "thuggish": 7685, "ruggish": 7686, "knu@@": 7687, "bucking": 7688, "prisons": 7689, "siblings": 7690, "chilling": 7691, "lac": 7692, "slabs": 7693, "tax": 7694, "snack": 7695, "fridge": 7696, "idols": 7697, "comfortably": 7698, "suddenly": 7699, "comfortable": 7700, "benjamins": 7701, "spinners": 7702, "twins": 7703, "mercedes": 7704, "dividends": 7705, "depends": 7706, "lees": 7707, "mothafuck": 7708, "leash": 7709, "repping": 7710, "weirder": 7711, "pin": 7712, "brew": 7713, "smashing": 7714, "sleeping": 7715, "mattress": 7716, "absence": 7717, "tripping": 7718, "acid": 7719, "massive": 7720, "equipped": 7721, "columns": 7722, "reckless": 7723, "spliffs": 7724, "beside": 7725, "liberace": 7726, "tommy": 7727, "huara@@": 7728, "slower": 7729, "shifted": 7730, "rasta": 7731, "freaks": 7732, "coupes": 7733, "bimmers": 7734, "accept": 7735, "dolls": 7736, "magazines": 7737, "higher": 7738, "lighter": 7739, "fluid": 7740, "mon@@": 7741, "trapping": 7742, "impulsive": 7743, "embarrassed": 7744, "actually": 7745, "happens": 7746, "abortion": 7747, "awkward": 7748, "jiggling": 7749, "forehead": 7750, "itali@@": 7751, "aza@@": 7752, "leas": 7753, "australia": 7754, "trips": 7755, "venezuela": 7756, "cinder@@": 7757, "ellas": 7758, "umbrella": 7759, "ella": 7760, "ayy": 7761, "lonely": 7762, "advice": 7763, "especially": 7764, "member": 7765, "guevara": 7766, "saint": 7767, "laurent": 7768, "chelle": 7769, "fo@@": 7770, "confidence": 7771, "peas": 7772, "mhm": 7773, "quarts": 7774, "clicquot": 7775, "sniff": 7776, "kilos": 7777, "sales": 7778, "perico": 7779, "atl": 7780, "penthouse": 7781, "pin@@": 7782, "perpetual": 7783, "comma": 7784, "decimals": 7785, "skys": 7786, "shaded": 7787, "overrated": 7788, "impress": 7789, "stone@@": 7790, "washed": 7791, "lambo": 7792, "golf": 7793, "cart": 7794, "outchea": 7795, "idea": 7796, "appear": 7797, "pow": 7798, "diarrhea": 7799, "cookin": 7800, "peta": 7801, "sneeze": 7802, "pints": 7803, "needles": 7804, "tina": 7805, "ike": 7806, "cheat": 7807, "mase": 7808, "redo": 7809, "ak": 7810, "seafood": 7811, "ache": 7812, "ym": 7813, "pluck": 7814, "stems": 7815, "nymp@@": 7816, "limp": 7817, "dem": 7818, "handcuffing": 7819, "skim": 7820, "brim": 7821, "sorta": 7822, "apologies": 7823, "goddamn": 7824, "ignorance": 7825, "afford": 7826, "stoned": 7827, "tombstone": 7828, "wannabe": 7829, "tennessee": 7830, "influenced": 7831, "truest": 7832, "scales": 7833, "toenails": 7834, "vampires": 7835, "bloodsuckers": 7836, "rowdy": 7837, "percy": 7838, "miller": 7839, "chilly": 7840, "chinchilla": 7841, "bounty": 7842, "hunters": 7843, "skrilla": 7844, "ity": 7845, "kriss": 7846, "kross": 7847, "gloss": 7848, "ons": 7849, "grabs": 7850, "giving": 7851, "insight": 7852, "clams": 7853, "mojo": 7854, "sophie": 7855, "kilo": 7856, "culo": 7857, "partner": 7858, "cinco": 7859, "ocho": 7860, "bozos": 7861, "stuntin": 7862, "dorothy": 7863, "rubies": 7864, "loco": 7865, "toto": 7866, "cadillac": 7867, "swaggin": 7868, "bag@@": 7869, "gages": 7870, "basis": 7871, "braces": 7872, "comment": 7873, "medal": 7874, "threshold": 7875, "petro": 7876, "odb": 7877, "opp": 7878, "nicotine": 7879, "aye": 7880, "mothafuckin": 7881, "swisher": 7882, "10th": 7883, "grade": 7884, "herringbone": 7885, "gem": 7886, "switchblades": 7887, "muthafucka": 7888, "nickname": 7889, "licked": 7890, "draped": 7891, "dripped": 7892, "easin": 7893, "gunnin": 7894, "weirdo": 7895, "tokyo": 7896, "sprees": 7897, "gifts": 7898, "bes": 7899, "rebuildin": 7900, "fulfilling": 7901, "says": 7902, "gra": 7903, "ignant": 7904, "cocktails": 7905, "gals": 7906, "gowns": 7907, "entire": 7908, "bub": 7909, "usher": 7910, "cker": 7911, "deals": 7912, "slaves": 7913, "mostly": 7914, "smokes": 7915, "pastor": 7916, "folk": 7917, "royces": 7918, "fears": 7919, "prayers": 7920, "glasses": 7921, "ski@@": 7922, "collection": 7923, "baskets": 7924, "dine": 7925, "savior": 7926, "pearly": 7927, "behavior": 7928, "tips": 7929, "favor": 7930, "greater": 7931, "collard": 7932, "potatoes": 7933, "cable": 7934, "skinny": 7935, "rocker": 7936, "wilder": 7937, "flocka": 7938, "bodied": 7939, "tonka": 7940, "mozart": 7941, "lark": 7942, "kart": 7943, "deebo": 7944, "fangs": 7945, "pu@@": 7946, "sherman": 7947, "iphone": 7948, "surf": 7949, "pre": 7950, "splittin": 7951, "taco": 7952, "nachos": 7953, "snot": 7954, "motherfuckin": 7955, "motherfucking": 7956, "bandanna": 7957, "surf@@": 7958, "pr": 7959, "hubby": 7960, "wasted": 7961, "karmas": 7962, "expecting": 7963, "aid": 7964, "hitting": 7965, "california": 7966, "vices": 7967, "biting": 7968, "mrs": 7969, "lightskin": 7970, "dark@@": 7971, "complexion": 7972, "kissed": 7973, "liked": 7974, "katy": 7975, "perry": 7976, "puffing": 7977, "pourin": 7978, "generations": 7979, "rita": 7980, "ora": 7981, "kicked": 7982, "bitched": 7983, "jizz@@": 7984, "anyways": 7985, "animosity": 7986, "debts": 7987, "wooh": 7988, "rewind": 7989, "cli@@": 7990, "enchilada": 7991, "commas": 7992, "dollas": 7993, "gua@@": 7994, "choppas": 7995, "eaves@@": 7996, "dro@@": 7997, "ppers": 7998, "outer": 7999, "jackin": 8000, "packin": 8001, "traffic": 8002, "fen@@": 8003, "smashin": 8004, "crashin": 8005, "saggin": 8006, "robbers": 8007, "goblins": 8008, "medulla": 8009, "oblongata": 8010, "san": 8011, "andreas": 8012, "maserati": 8013, "atari": 8014, "bugatti": 8015, "bugattis": 8016, "worried": 8017, "rastafari": 8018, "hardest": 8019, "supersonic": 8020, "systematic": 8021, "retarded": 8022, "apartment": 8023, "newer": 8024, "partments": 8025, "accomplish": 8026, "accomplice": 8027, "charges": 8028, "honors": 8029, "pickin": 8030, "coliseum": 8031, "scenes": 8032, "arguments": 8033, "couldve": 8034, "stunna": 8035, "run@@": 8036, "tuss": 8037, "tippin": 8038, "steeze": 8039, "belize": 8040, "wifeys": 8041, "nails": 8042, "saw@@": 8043, "florida": 8044, "georgia": 8045, "yorker": 8046, "bossed": 8047, "peasant": 8048, "braided": 8049, "sniffed": 8050, "spades": 8051, "jimi": 8052, "hendrix": 8053, "cray": 8054, "pinchin": 8055, "biased": 8056, "preachers": 8057, "preachin": 8058, "messiah": 8059, "toast": 8060, "saints": 8061, "evils": 8062, "styrofoam": 8063, "jolly": 8064, "ran@@": 8065, "chers": 8066, "blessin": 8067, "hercules": 8068, "catholic": 8069, "muslim": 8070, "jehovah": 8071, "witnesses": 8072, "amendment": 8073, "kk": 8074, "jfk": 8075, "kkk": 8076, "walmart": 8077, "ok": 8078, "sk": 8079, "doa": 8080, "butt@@": 8081, "cutter": 8082, "mma": 8083, "audemars": 8084, "pigu@@": 8085, "recruits": 8086, "flutes": 8087, "tombs": 8088, "abide": 8089, "sophisticated": 8090, "philosophies": 8091, "wagon": 8092, "socrates": 8093, "panese": 8094, "tissues": 8095, "roger": 8096, "pat": 8097, "stocking": 8098, "dd": 8099, "itch": 8100, "di": 8101, "hoopty": 8102, "smoo@@": 8103, "thy": 8104, "coaster": 8105, "posers": 8106, "dozer": 8107, "toasters": 8108, "folgers": 8109, "idol": 8110, "renew": 8111, "suicidal": 8112, "tweakers": 8113, "mat": 8114, "bathing": 8115, "jeremy": 8116, "meech": 8117, "sat": 8118, "gig": 8119, "jig": 8120, "somewhere": 8121, "town@@": 8122, "roundhouse": 8123, "bald": 8124, "rogaine": 8125, "lemon": 8126, "shrimp": 8127, "lo": 8128, "mein": 8129, "afros": 8130, "platforms": 8131, "hung": 8132, "pur@@": 8133, "pler": 8134, "plane": 8135, "dame": 8136, "shitll": 8137, "tussin": 8138, "drunker": 8139, "afterparty": 8140, "slumber": 8141, "sips": 8142, "purrp": 8143, "methazine": 8144, "memphis": 8145, "666": 8146, "licks": 8147, "candle": 8148, "nightstand": 8149, "lotion": 8150, "floating": 8151, "potion": 8152, "potent": 8153, "chunk": 8154, "ringing": 8155, "palms": 8156, "mamas": 8157, "aching": 8158, "partly": 8159, "apartments": 8160, "basements": 8161, "vacant": 8162, "lots": 8163, "garages": 8164, "spaces": 8165, "spacious": 8166, "charter": 8167, "spaceship": 8168, "martins": 8169, "martha": 8170, "mason": 8171, "gentrification": 8172, "nation": 8173, "recall": 8174, "friendly": 8175, "praising": 8176, "younger": 8177, "gangs": 8178, "pages": 8179, "inspired": 8180, "entirely": 8181, "pride": 8182, "punished": 8183, "undercovers": 8184, "buying": 8185, "paranoia": 8186, "comp@@": 8187, "anys": 8188, "company": 8189, "ski": 8190, "phony": 8191, "dungarees": 8192, "flintstone": 8193, "mura@@": 8194, "kami": 8195, "pebble": 8196, "bezel": 8197, "wilma": 8198, "betty": 8199, "fred": 8200, "barney": 8201, "abercrombie": 8202, "char@@": 8203, "leprechaun": 8204, "sleeves": 8205, "uppin": 8206, "fees": 8207, "silhoue@@": 8208, "ttes": 8209, "cigarettes": 8210, "addiction": 8211, "nicorette": 8212, "misses": 8213, "flaunt": 8214, "yves": 8215, "ending": 8216, "growed": 8217, "illest": 8218, "toaster": 8219, "imitation": 8220, "poser": 8221, "poster": 8222, "traded": 8223, "chauffeured": 8224, "picking": 8225, "slipping": 8226, "undress": 8227, "caressing": 8228, "breast": 8229, "jackers": 8230, "dances": 8231, "backpackers": 8232, "hipsters": 8233, "sisters": 8234, "deprived": 8235, "basically": 8236, "attra@@": 8237, "ki@@": 8238, "squad@@": 8239, "poli@@": 8240, "shin": 8241, "casa": 8242, "madre": 8243, "comprende": 8244, "gay": 8245, "mixing": 8246, "barcode": 8247, "park@@": 8248, "kay": 8249, "monkey": 8250, "kiddy": 8251, "parks": 8252, "itchin": 8253, "pox": 8254, "litty": 8255, "03": 8256, "vicky": 8257, "ugh": 8258, "thanks": 8259, "changes": 8260, "distracted": 8261, "suing": 8262, "exes": 8263, "engaged": 8264, "tal": 8265, "addict": 8266, "tatted": 8267, "attics": 8268, "stashes": 8269, "cabinets": 8270, "stuffed": 8271, "taz": 8272, "arnold": 8273, "sa": 8274, "lee@@": 8275, "cher": 8276, "student": 8277, "skeezer": 8278, "camo": 8279, "rambo": 8280, "virtue": 8281, "grand@@": 8282, "lamp": 8283, "eggs": 8284, "hov": 8285, "rove": 8286, "tea@@": 8287, "spoons": 8288, "instead": 8289, "tyga": 8290, "diggy": 8291, "currensy": 8292, "compare": 8293, "yous": 8294, "resurrect": 8295, "redbones": 8296, "hussein": 8297, "jokers": 8298, "liu": 8299, "kang": 8300, "bragging": 8301, "bermu@@": 8302, "nu@@": 8303, "dies": 8304, "foolishness": 8305, "coolest": 8306, "dest": 8307, "jewish": 8308, "bluest": 8309, "whoo": 8310, "fuss": 8311, "evens": 8312, "endure": 8313, "assured": 8314, "ruthless": 8315, "closest": 8316, "express": 8317, "philly": 8318, "gina": 8319, "titty": 8320, "gripping": 8321, "hidden": 8322, "4s": 8323, "06": 8324, "showbiz": 8325, "selfish": 8326, "shelf": 8327, "goldfish": 8328, "fella": 8329, "bu@@": 8330, "can@@": 8331, "fair": 8332, "awe": 8333, "jawn": 8334, "lickin": 8335, "stri@@": 8336, "cted": 8337, "mall": 8338, "guard": 8339, "principal": 8340, "commissary": 8341, "uncle": 8342, "granted": 8343, "remorse": 8344, "admit": 8345, "admitted": 8346, "ors": 8347, "hitta": 8348, "chit": 8349, "diplomats": 8350, "bigga": 8351, "clots": 8352, "buckshots": 8353, "doves": 8354, "dry": 8355, "twitch": 8356, "skip": 8357, "pitchin": 8358, "richest": 8359, "porter": 8360, "ordered": 8361, "almost": 8362, "deported": 8363, "genocide": 8364, "access@@": 8365, "ori@@": 8366, "repertoire": 8367, "coretta": 8368, "cute": 8369, "faced": 8370, "glitz": 8371, "gla@@": 8372, "mors": 8373, "sandals": 8374, "laundry": 8375, "hamper": 8376, "brands": 8377, "samurai": 8378, "crotch": 8379, "saniti@@": 8380, "zed": 8381, "sour": 8382, "ese": 8383, "troubles": 8384, "pappy": 8385, "exactly": 8386, "energize": 8387, "cedes": 8388, "intercom": 8389, "adderall": 8390, "teachers": 8391, "lana": 8392, "contradiction": 8393, "distorted": 8394, "sur@@": 8395, "cloud": 8396, "earthlings": 8397, "asshole": 8398, "turd": 8399, "tings": 8400, "talked": 8401, "bird": 8402, "ground@@": 8403, "causin": 8404, "earthquakes": 8405, "fakes": 8406, "franklin": 8407, "franklins": 8408, "waldorf": 8409, "racism": 8410, "ism": 8411, "rape": 8412, "salt": 8413, "bath": 8414, "melt": 8415, "is@@": 8416, "sey": 8417, "yake": 8418, "logos": 8419, "onto": 8420, "saver": 8421, "satisfied": 8422, "titties": 8423, "changer": 8424, "opposite": 8425, "resent": 8426, "reload": 8427, "voted": 8428, "dissed": 8429, "hesitated": 8430, "designated": 8431, "stored": 8432, "kidneys": 8433, "chimney": 8434, "remedies": 8435, "energy": 8436, "industri@@": 8437, "advantage": 8438, "bronson": 8439, "ham": 8440, "mb@@": 8441, "org@@": 8442, "hini": 8443, "uptown": 8444, "sr": 8445, "yasi@@": 8446, "bey": 8447, "closing": 8448, "hans": 8449, "home@@": 8450, "twerkin": 8451, "owen": 8452, "posin": 8453, "sexin": 8454, "celebrity": 8455, "vanquish": 8456, "aston": 8457, "1000": 8458, "fab": 8459, "cain": 8460, "bitter": 8461, "quickest": 8462, "picker": 8463, "kid@@": 8464, "kitty": 8465, "litter": 8466, "shitter": 8467, "snowin": 8468, "frozen": 8469, "handin": 8470, "bills": 8471, "doorman": 8472, "bros": 8473, "celebrities": 8474, "lonesome": 8475, "funds": 8476, "wholesome": 8477, "switched": 8478, "truthfully": 8479, "motorola": 8480, "saved": 8481, "14@@": 8482, "mini@@": 8483, "camron": 8484, "wearing": 8485, "cradle": 8486, "nana": 8487, "renovate": 8488, "lemonade": 8489, "flattery": 8490, "imitate": 8491, "saks": 8492, "copped": 8493, "py@@": 8494, "prettier": 8495, "counterfeit": 8496, "lower": 8497, "peers": 8498, "praying": 8499, "answering": 8500, "rejoice": 8501, "dang@@": 8502, "tang@@": 8503, "nintendo": 8504, "sega": 8505, "businesses": 8506, "mobbing": 8507, "mars": 8508, "gymna@@": 8509, "zooming": 8510, "actress": 8511, "tragic": 8512, "tense": 8513, "mystique": 8514, "gre@@": 8515, "wrapper": 8516, "trapper": 8517, "toot": 8518, "pinky": 8519, "hotline": 8520, "ckeyed": 8521, "including": 8522, "reindeer": 8523, "clair": 8524, "ignorant": 8525, "plays": 8526, "poem": 8527, "zing": 8528, "yellin": 8529, "babe": 8530, "raheem": 8531, "hi": 8532, "bleed": 8533, "stayin": 8534, "qs": 8535, "soup": 8536, "november": 8537, "icky": 8538, "badass": 8539, "cmon": 8540, "ter@@": 8541, "turtles": 8542, "amex": 8543, "naw": 8544, "hairline": 8545, "bowl": 8546, "gotten": 8547, "study": 8548, "eys": 8549, "bino": 8550, "sixteens": 8551, "foods": 8552, "trader": 8553, "joes": 8554, "destinys": 8555, "heron": 8556, "cripping": 8557, "forensics": 8558, "twisting": 8559, "caskets": 8560, "ashes": 8561, "backwards": 8562, "dressing": 8563, "salads": 8564, "patch": 8565, "cabbage": 8566, "dish": 8567, "habits": 8568, "cy@@": 8569, "butterscotch": 8570, "wop": 8571, "wock": 8572, "modeled": 8573, "flock": 8574, "guap": 8575, "mattresses": 8576, "preference": 8577, "sweats": 8578, "reno": 8579, "pinot": 8580, "italian": 8581, "gr@@": 8582, "highway": 8583, "vers": 8584, "leftovers": 8585, "make@@": 8586, "glen@@": 8587, "fid@@": 8588, "takeover": 8589, "boutique": 8590, "justin": 8591, "timberlake": 8592, "suicides": 8593, "uber": 8594, "sativa": 8595, "steam": 8596, "tho": 8597, "captain": 8598, "unbelievable": 8599, "mexico": 8600, "dimelo": 8601, "topic": 8602, "pping": 8603, "rotation": 8604, "basketball": 8605, "cinnamon": 8606, "apple@@": 8607, "zies": 8608, "blazing": 8609, "briefs": 8610, "speedo": 8611, "nudie": 8612, "reps": 8613, "leopard": 8614, "louboutins": 8615, "tivo": 8616, "beyonce": 8617, "bestest": 8618, "step@@": 8619, "nausea": 8620, "maggot": 8621, "louboutin": 8622, "mens": 8623, "protection": 8624, "molesting": 8625, "mapped": 8626, "condom": 8627, "twel@@": 8628, "vy": 8629, "shel@@": 8630, "snapback": 8631, "space@@": 8632, "flirty": 8633, "purdy": 8634, "verbs": 8635, "served": 8636, "rib": 8637, "craving": 8638, "tablet": 8639, "satisfaction": 8640, "bber@@": 8641, "gasted": 8642, "7th": 8643, "patrolling": 8644, "celebration": 8645, "resume": 8646, "ss@@": 8647, "chevrolet": 8648, "decorate": 8649, "cost@@": 8650, "gar@@": 8651, "yle": 8652, "san@@": 8653, "tos": 8654, "phantom": 8655, "showers": 8656, "blind@@": 8657, "folds": 8658, "roscoes": 8659, "flipping": 8660, "waffles": 8661, "debating": 8662, "apron": 8663, "leggings": 8664, "tylenol": 8665, "dawg": 8666, "allergic": 8667, "sad": 8668, "river": 8669, "pacific": 8670, "specific": 8671, "lipstick": 8672, "testicles": 8673, "del": 8674, "agua": 8675, "pan": 8676, "possess": 8677, "whirlwind": 8678, "laughin": 8679, "jokes": 8680, "chats": 8681, "tagging": 8682, "flashbacks": 8683, "thong": 8684, "weve": 8685, "backwood": 8686, "marty": 8687, "mcfly": 8688, "dawgs": 8689, "tens": 8690, "eleven": 8691, "lusting": 8692, "twenties": 8693, "fifties": 8694, "stingy": 8695, "swizzy": 8696, "fendi": 8697, "tipsy": 8698, "crissy": 8699, "icu": 8700, "silly": 8701, "hippies": 8702, "silencers": 8703, "amigos": 8704, "quavo": 8705, "fuego": 8706, "hahahahaha": 8707, "chop@@": 8708, "answers": 8709, "cers": 8710, "german": 8711, "vermin": 8712, "sherlock": 8713, "nasdaq": 8714, "scru@@": 8715, "crusty": 8716, "musty": 8717, "projected": 8718, "leverage": 8719, "loading": 8720, "shook": 8721, "aroma": 8722, "stronger": 8723, "ammonia": 8724, "coma": 8725, "kutcher": 8726, "dates": 8727, "cognac": 8728, "grape": 8729, "vines": 8730, "drape": 8731, "spur": 8732, "heels": 8733, "cheating": 8734, "bally": 8735, "birkin": 8736, "flaky": 8737, "curvin": 8738, "furnished": 8739, "sub": 8740, "lease": 8741, "perm": 8742, "turbulence": 8743, "slangin": 8744, "promethazine": 8745, "throats": 8746, "cannes": 8747, "festival": 8748, "tropez": 8749, "pope": 8750, "fonz": 8751, "champions": 8752, "lebrons": 8753, "barred": 8754, "themselves": 8755, "solange": 8756, "photo@@": 8757, "syn@@": 8758, "ics": 8759, "rail": 8760, "stating": 8761, "cleaning": 8762, "rare": 8763, "distress": 8764, "regret": 8765, "breasts": 8766, "divide": 8767, "devoured": 8768, "inspire": 8769, "responsibly": 8770, "wo@@": 8771, "bity": 8772, "robbing": 8773, "robbery": 8774, "honestly": 8775, "poverty": 8776, "policy": 8777, "technology": 8778, "democra@@": 8779, "mockery": 8780, "hypothesis": 8781, "obsolete": 8782, "forrest": 8783, "gump": 8784, "mister": 8785, "nosy": 8786, "reporter": 8787, "trends": 8788, "git": 8789, "amphetamines": 8790, "sks": 8791, "penitentiary": 8792, "flux": 8793, "kidding": 8794, "surpassed": 8795, "nba": 8796, "2k": 8797, "nfl": 8798, "coogi": 8799, "snuff": 8800, "pics": 8801, "clubs": 8802, "behalf": 8803, "hearin": 8804, "sobriety": 8805, "opponents": 8806, "frankenstein": 8807, "saving": 8808, "slime": 8809, "columbine": 8810, "iced": 8811, "pendant": 8812, "pending": 8813, "thanksgiving": 8814, "churchs": 8815, "thankful": 8816, "unfaithful": 8817, "feeds": 8818, "frost": 8819, "floss": 8820, "voss": 8821, "waterboy": 8822, "boucher": 8823, "toupee": 8824, "wrath": 8825, "fs": 8826, "herojuana": 8827, "dancin": 8828, "sports": 8829, "boarded": 8830, "forfeit": 8831, "toilet": 8832, "quickie": 8833, "twister": 8834, "heroin": 8835, "tame": 8836, "flu": 8837, "g4": 8838, "flew": 8839, "product": 8840, "locker": 8841, "posture": 8842, "beijing": 8843, "celine": 8844, "err": 8845, "reply": 8846, "shack": 8847, "condos": 8848, "paintings": 8849, "marc": 8850, "rugs": 8851, "mores": 8852, "marshma@@": 8853, "llow": 8854, "stev@@": 8855, "graduated": 8856, "aiming": 8857, "providing": 8858, "sentences": 8859, "toasting": 8860, "burglars": 8861, "hamburger": 8862, "grandmother": 8863, "furniture": 8864, "nip": 8865, "scan": 8866, "aisle": 8867, "bodega": 8868, "kittens": 8869, "youngest": 8870, "mittens": 8871, "chickens": 8872, "fishes": 8873, "flack": 8874, "bachelor": 8875, "gent": 8876, "purpose": 8877, "kurtis": 8878, "shy": 8879, "amber": 8880, "pretending": 8881, "diggers": 8882, "digging": 8883, "lint": 8884, "closin": 8885, "levels": 8886, "settle": 8887, "youve": 8888, "bape": 8889, "waves": 8890, "screech": 8891, "swish": 8892, "swoosh": 8893, "hitters": 8894, "aria": 8895, "tested": 8896, "quiz": 8897, "testin": 8898, "ribs": 8899, "splat": 8900, "m16": 8901, "weigh": 8902, "sweets": 8903, "bae": 8904, "hopes": 8905, "darling": 8906, "tai@@": 8907, "lors": 8908, "events": 8909, "barbers": 8910, "collars": 8911, "ritz": 8912, "pronounce": 8913, "kit": 8914, "jumpin": 8915, "learners": 8916, "permit": 8917, "tabs": 8918, "tab": 8919, "eh": 8920, "feelins": 8921, "fallin": 8922, "spoiled": 8923, "respectin": 8924, "lockdown": 8925, "macaulay": 8926, "culkin": 8927, "rolla": 8928, "doja": 8929, "shoulders": 8930, "limousine": 8931, "snoozin": 8932, "foolin": 8933, "coolin": 8934, "gimme": 8935, "truancy": 8936, "sacred": 8937, "yuh": 8938, "whack": 8939, "rollo": 8940, "snow@@": 8941, "zipper": 8942, "burners": 8943, "var@@": 8944, "mints": 8945, "permanently": 8946, "furna@@": 8947, "ambulance": 8948, "urgency": 8949, "wastin": 8950, "murda": 8951, "playa": 8952, "stas": 8953, "friendship": 8954, "bli@@": 8955, "ckers": 8956, "pencils": 8957, "ooo": 8958, "blur": 8959, "enemy": 8960, "sympathy": 8961, "empathy": 8962, "interviews": 8963, "tranquility": 8964, "lewinsky": 8965, "hillary": 8966, "bittersweet": 8967, "literally": 8968, "illiterate": 8969, "friended": 8970, "frenemies": 8971, "offending": 8972, "lemon@@": 8973, "tea": 8974, "penalty": 8975, "horrors": 8976, "grillin": 8977, "drilling": 8978, "genitals": 8979, "golds": 8980, "floored": 8981, "panty": 8982, "psychedelics": 8983, "migraine": 8984, "octane": 8985, "tar": 8986, "concentrate": 8987, "sideways": 8988, "irate": 8989, "i8": 8990, "cells": 8991, "lvs": 8992, "virgil": 8993, "turtle": 8994, "evolved": 8995, "squir@@": 8996, "tle": 8997, "chu": 8998, "pinch": 8999, "psychedelic": 9000, "vessel": 9001, "chlorine": 9002, "sandman": 9003, "molly": 9004, "cum": 9005, "cozy": 9006, "yi": 9007, "par@@": 9008, "ni@@": 9009, "ior@@": 9010, "lem@@": 9011, "ali@@": 9012, "ot@@": 9013, "ny@@": 9014, "shi@@": 9015, "strangers": 9016, "orderin": 9017, "payin": 9018, "addin": 9019, "doormat": 9020, "envision": 9021, "offendin": 9022, "loudest": 9023, "weakest": 9024, "modest": 9025, "demolition": 9026, "palace": 9027, "stylist": 9028, "val@@": 9029, "burglar": 9030, "stylists": 9031, "backbone": 9032, "backstabbers": 9033, "yalls": 9034, "zoom": 9035, "watchu": 9036, "kissing": 9037, "carat": 9038, "smilin": 9039, "sheet": 9040, "spain": 9041, "triller": 9042, "hilfiger": 9043, "bye": 9044, "hasta": 9045, "vista": 9046, "ringin": 9047, "kris": 9048, "kringle": 9049, "django": 9050, "dean": 9051, "buffy": 9052, "uzi": 9053, "vert": 9054, "pedal": 9055, "candyman": 9056, "tit": 9057, "isse": 9058, "kites": 9059, "string": 9060, "pup": 9061, "staying": 9062, "sigh": 9063, "hurtin": 9064, "realest": 9065, "defe@@": 9066, "cate": 9067, "youngin": 9068, "buttons": 9069, "hopefully": 9070, "republic": 9071, "subject": 9072, "shie": 9073, "hopin": 9074, "tough@@": 9075, "cushion": 9076, "flunked": 9077, "failin": 9078, "gym": 9079, "skeletons": 9080, "cupboard": 9081, "mca": 9082, "hoopin": 9083, "baddie": 9084, "cuffin": 9085, "appreciate": 9086, "beginning": 9087, "desired": 9088, "clubbin": 9089, "luggage": 9090, "baggage": 9091, "shortie": 9092, "moneys": 9093, "cellphones": 9094, "voicemail": 9095, "juggle": 9096, "navel": 9097, "rapunzel": 9098, "erin": 9099, "fluctu@@": 9100, "crumble": 9101, "bubbles": 9102, "random": 9103, "beauti@@": 9104, "cians": 9105, "beauty": 9106, "parlor": 9107, "boostin": 9108, "yonkers": 9109, "detour": 9110, "hunnid": 9111, "brush": 9112, "mornin": 9113, "evenin": 9114, "tides": 9115, "frisco": 9116, "nothins": 9117, "resting": 9118, "loneliness": 9119, "roamed": 9120, "wee": 9121, "sounded": 9122, "huntin": 9123, "giselle": 9124, "tickets": 9125, "birdy": 9126, "rrr": 9127, "a1": 9128, "thursday": 9129, "vvs": 9130, "choker": 9131, "sticks": 9132, "vote": 9133, "clans": 9134, "cock@@": 9135, "iness": 9136, "conceited": 9137, "penis": 9138, "leg": 9139, "meanest": 9140, "se": 9141, "ri": 9142, "remix": 9143, "dvd": 9144, "mp3": 9145, "cuckoo": 9146, "cou@@": 9147, "crickets": 9148, "soccer": 9149, "mossberg": 9150, "concerts": 9151, "furs": 9152, "ox@@": 9153, "clockwork": 9154, "umm": 9155, "anna": 9156, "santa": 9157, "claus": 9158, "fend": 9159, "slut": 9160, "fleek": 9161, "sir@@": 9162, "ree": 9163, "meek": 9164, "fi": 9165, "woah": 9166, "singles": 9167, "jin@@": 9168, "gles": 9169, "soulja": 9170, "ringtones": 9171, "pringles": 9172, "measles": 9173, "ring@@": 9174, "baskin": 9175, "quee@@": 9176, "fin": 9177, "grievin": 9178, "pores": 9179, "floors": 9180, "ceilings": 9181, "indoors": 9182, "missus": 9183, "dedicated": 9184, "rapped": 9185, "min@@": 9186, "mingle": 9187, "lingo": 9188, "evisu": 9189, "santo": 9190, "domingo": 9191, "birdie": 9192, "realizin": 9193, "turfs": 9194, "wealthy": 9195, "menages": 9196, "riri": 9197, "beyonces": 9198, "goodmornin": 9199, "soarin": 9200, "skies": 9201, "crunchy": 9202, "lis": 9203, "iso@@": 9204, "sceles": 9205, "monopoly": 9206, "awar@@": 9207, "ded": 9208, "nominee": 9209, "gown": 9210, "cappin": 9211, "naysayers": 9212, "believed": 9213, "unfortunate": 9214, "babes": 9215, "bundy": 9216, "afro@@": 9217, "loe": 9218, "breakfast": 9219, "oj": 9220, "bih": 9221, "wh@@": 9222, "eeze": 9223, "privilege": 9224, "stomach": 9225, "aggre@@": 9226, "ssions": 9227, "comparisons": 9228, "embarrassing": 9229, "passive": 9230, "milli": 9231, "bathin": 9232, "monkeys": 9233, "orangutan": 9234, "ding": 9235, "flaggin": 9236, "bandwagon": 9237, "gaggin": 9238, "laggin": 9239, "crackin": 9240, "clackin": 9241, "misma@@": 9242, "tryina": 9243, "laden": 9244, "latin": 9245, "x2": 9246, "toy": 9247, "clipped": 9248, "merk": 9249, "covering": 9250, "fulla": 9251, "rave": 9252, "prerogative": 9253, "shoulda": 9254, "charisma": 9255, "objective": 9256, "agenda": 9257, "sprinkle": 9258, "twistin": 9259, "netflix": 9260, "microwave": 9261, "oven": 9262, "stuffin": 9263, "muthafuckin": 9264, "exhaust": 9265, "crippin": 9266, "boutta": 9267, "skrt": 9268, "smeared": 9269, "criss": 9270, "crocodile": 9271, "options": 9272, "narrow": 9273, "consequence": 9274, "moved": 9275, "responsible": 9276, "popsicle": 9277, "pickle": 9278, "sunflower": 9279, "promotin": 9280, "eve": 9281, "pee": 9282, "fourteen": 9283, "knockin": 9284, "knocking": 9285, "proofs": 9286, "cosby": 9287, "bently": 9288, "objects": 9289, "flute": 9290, "broom": 9291, "shrooms": 9292, "afternoon": 9293, "cartel": 9294, "whatchu": 9295, "tactic": 9296, "millie": 9297, "baguette": 9298, "ske@@": 9299, "skrrr": 9300, "collecting": 9301, "residents": 9302, "fetal": 9303, "surrounding": 9304, "counting": 9305, "signing": 9306, "vest": 9307, "sequel": 9308, "fairy": 9309, "peasants": 9310, "tered": 9311, "g5": 9312, "ion": 9313, "pho@@": 9314, "techs": 9315, "mally": 9316, "tick": 9317, "clickity": 9318, "fasho": 9319, "scriptures": 9320, "forgiven": 9321, "loves": 9322, "bc": 9323, "depravity": 9324, "isaiah": 9325, "chuckle": 9326, "horn": 9327, "parties": 9328, "intoxicated": 9329, "spirit": 9330, "dear": 9331, "displayed": 9332, "respond": 9333, "runs": 9334, "generated": 9335, "various": 9336, "lit@@": 9337, "ary": 9338, "devices": 9339, "dramatic": 9340, "ambassador": 9341, "tonic": 9342, "en@@": 9343, "raiders": 9344, "choosing": 9345, "revolutionary": 9346, "musi@@": 9347, "lou": 9348, "noticed": 9349, "jackie": 9350, "thm": 9351, "crossed": 9352, "causing": 9353, "confusion": 9354, "conclusions": 9355, "pursuing": 9356, "dissing": 9357, "az": 9358, "ruth": 9359, "unity": 9360, "chh": 9361, "brotherly": 9362, "happening": 9363, "atmosphere": 9364, "seeking": 9365, "philoso@@": 9366, "phi@@": 9367, "devised": 9368, "apo@@": 9369, "stati@@": 9370, "trumps": 9371, "bled": 9372, "demonstration": 9373, "theo@@": 9374, "centric": 9375, "selfie": 9376, "riddle": 9377, "depra@@": 9378, "ved": 9379, "matt": 9380, "damon": 9381, "addresses": 9382, "lamb": 9383, "vary": 9384, "agony": 9385, "abundant": 9386, "sunken": 9387, "decrepit": 9388, "mystery": 9389, "nucleus": 9390, "proclaim": 9391, "doctrine": 9392, "election": 9393, "sovereign": 9394, "stressin": 9395, "godly": 9396, "perfected": 9397, "bodily": 9398, "complicated": 9399, "oper@@": 9400, "amazing": 9401, "pagan": 9402, "argue": 9403, "chooses": 9404, "israel": 9405, "egypt": 9406, "judas": 9407, "human@@": 9408, "ul": 9409, "inheritance": 9410, "jacobs": 9411, "speaks": 9412, "brigh@@": 9413, "rightly": 9414, "huge": 9415, "mighty": 9416, "contest": 9417, "destination": 9418, "reservations": 9419, "fume": 9420, "hesitation": 9421, "devastating": 9422, "prone": 9423, "passages": 9424, "divine": 9425, "clay": 9426, "formed": 9427, "potter": 9428, "unless": 9429, "draws": 9430, "despicable": 9431, "unconditional": 9432, "drowning": 9433, "gro@@": 9434, "nope": 9435, "apology": 9436, "deny": 9437, "analogy": 9438, "dove": 9439, "smelled": 9440, "vol@@": 9441, "ition": 9442, "breathed": 9443, "permission": 9444, "examples": 9445, "raising": 9446, "lazarus": 9447, "happily": 9448, "imous": 9449, "savages": 9450, "sovereignty": 9451, "pri@@": 9452, "macy": 9453, "dec@@": 9454, "others": 9455, "heavens": 9456, "pleases": 9457, "rumor": 9458, "roof@@": 9459, "sewer": 9460, "craf@@": 9461, "bask": 9462, "worship": 9463, "askin": 9464, "furnace": 9465, "extravagant": 9466, "immaculate": 9467, "purchase": 9468, "scratchin": 9469, "awesome": 9470, "healer": 9471, "ful@@": 9472, "filler": 9473, "sodom": 9474, "revea@@": 9475, "scripture": 9476, "prominent": 9477, "frightening": 9478, "dominant": 9479, "mixture": 9480, "ren@@": 9481, "manger": 9482, "cosmo@@": 9483, "logy": 9484, "bba": 9485, "astrono@@": 9486, "pottery": 9487, "shocking": 9488, "adopted": 9489, "constantly": 9490, "odyssey": 9491, "lottery": 9492, "resurrected": 9493, "caly@@": 9494, "ptic": 9495, "scholar@@": 9496, "bb@@": 9497, "ery": 9498, "cannot": 9499, "restra@@": 9500, "ined": 9501, "nations": 9502, "excellence": 9503, "ashamed": 9504, "lacking": 9505, "shackle": 9506, "cosmic": 9507, "soaker": 9508, "pugi@@": 9509, "pun@@": 9510, "ruling": 9511, "amusing": 9512, "laughs": 9513, "persist": 9514, "declare": 9515, "uterus": 9516, "established": 9517, "zion": 9518, "perfe@@": 9519, "ctions": 9520, "affected": 9521, "opinion": 9522, "dominion": 9523, "dive": 9524, "purposes": 9525, "completed": 9526, "discer@@": 9527, "nment": 9528, "determined": 9529, "according": 9530, "tends": 9531, "sse@@": 9532, "sinners": 9533, "acquainted": 9534, "chapters": 9535, "creation": 9536, "salvation": 9537, "probation": 9538, "regeneration": 9539, "revelation": 9540, "stunning": 9541, "exalted": 9542, "dense": 9543, "introducing": 9544, "union": 9545, "comprehension": 9546, "descen@@": 9547, "sion": 9548, "precipit@@": 9549, "participa@@": 9550, "adam": 9551, "committed": 9552, "spirits": 9553, "antennas": 9554, "fallen": 9555, "dilemma": 9556, "substitute": 9557, "sol@@": 9558, "vable": 9559, "obstacle": 9560, "us@@": 9561, "ible": 9562, "hater@@": 9563, "natures": 9564, "united": 9565, "divinity": 9566, "existent": 9567, "trinity": 9568, "magi@@": 9569, "ster@@": 9570, "ial": 9571, "infinitely": 9572, "transcen@@": 9573, "realm": 9574, "pivotal": 9575, "proto@@": 9576, "posse@@": 9577, "ssor": 9578, "om@@": 9579, "angels": 9580, "created": 9581, "farthest": 9582, "galaxy": 9583, "smallest": 9584, "mole@@": 9585, "cule": 9586, "deserves": 9587, "maintained": 9588, "cosmos": 9589, "consciousness": 9590, "sharpest": 9591, "bio@@": 9592, "logist": 9593, "acknowle@@": 9594, "dges": 9595, "logists": 9596, "apologi@@": 9597, "omni@@": 9598, "nove@@": 9599, "preposterous": 9600, "humanity": 9601, "stretches": 9602, "becoming": 9603, "cea@@": 9604, "philipp@@": 9605, "uranus": 9606, "venus": 9607, "fetus": 9608, "anybody": 9609, "am@@": 9610, "otic": 9611, "gospels": 9612, "apostles": 9613, "sockets": 9614, "nostrils": 9615, "clothed": 9616, "weakness": 9617, "sweetness": 9618, "weeping": 9619, "pains": 9620, "saves": 9621, "seeker": 9622, "totally": 9623, "helium": 9624, "braggin": 9625, "superstar": 9626, "emoji": 9627, "listenin": 9628, "revolves": 9629, "fleas": 9630, "prominence": 9631, "accomplishments": 9632, "dominance": 9633, "precaution": 9634, "compared": 9635, "foldin": 9636, "skill": 9637, "trans@@": 9638, "figu@@": 9639, "ration": 9640, "reached": 9641, "crypt": 9642, "completely": 9643, "clip@@": 9644, "scary": 9645, "necessary": 9646, "repent": 9647, "maturity": 9648, "oughta": 9649, "enters": 9650, "pleasures": 9651, "letters": 9652, "high@@": 9653, "pru@@": 9654, "dence": 9655, "lectures": 9656, "students": 9657, "ephesians": 9658, "preaching": 9659, "xter": 9660, "topics": 9661, "sprou@@": 9662, "riled": 9663, "holiness": 9664, "tot": 9665, "owing": 9666, "flowing": 9667, "ourselves": 9668, "lifeless": 9669, "powerful": 9670, "eternity": 9671, "whom": 9672, "praisin": 9673, "agent": 9674, "hovering": 9675, "faithful": 9676, "borders": 9677, "contaminate": 9678, "inhabit@@": 9679, "mates": 9680, "mate": 9681, "servants": 9682, "tabernacle": 9683, "fellowship": 9684, "deserving": 9685, "elect": 9686, "rever@@": 9687, "zekiel": 9688, "worker": 9689, "shepherd": 9690, "shadows": 9691, "judges": 9692, "empowered": 9693, "suffer@@": 9694, "ings": 9695, "sequ@@": 9696, "glor@@": 9697, "ies": 9698, "virgins": 9699, "womb": 9700, "conceived": 9701, "empower": 9702, "ministry": 9703, "overcome": 9704, "temptations": 9705, "firstborn": 9706, "ano@@": 9707, "inting": 9708, "pente@@": 9709, "effe@@": 9710, "ctual": 9711, "impa@@": 9712, "jerusalem": 9713, "dea": 9714, "maria": 9715, "africa": 9716, "stephen": 9717, "sapp@@": 9718, "barna@@": 9719, "bas": 9720, "missions": 9721, "division": 9722, "christs": 9723, "vindi@@": 9724, "lake": 9725, "ciously": 9726, "sancti@@": 9727, "fier": 9728, "ator": 9729, "scripted": 9730, "rene@@": 9731, "ws": 9732, "pursue": 9733, "for@@": 9734, "mity": 9735, "produce": 9736, "directing": 9737, "ensure": 9738, "adoption": 9739, "abroad": 9740, "ass@@": 9741, "urance": 9742, "warring": 9743, "warnings": 9744, "endurance": 9745, "assu@@": 9746, "dly": 9747, "unite": 9748, "storys": 9749, "ama@@": 9750, "zin@@": 9751, "gly": 9752, "brightness": 9753, "ites": 9754, "hymns": 9755, "sung": 9756, "positi@@": 9757, "oned": 9758, "sights": 9759, "as@@": 9760, "neptune": 9761, "pluto": 9762, "jupiter": 9763, "saturn": 9764, "locusts": 9765, "oceans": 9766, "result": 9767, "jehovahs": 9768, "decre@@": 9769, "observe": 9770, "creates": 9771, "serves": 9772, "shapes": 9773, "deter@@": 9774, "urgent": 9775, "rates": 9776, "shakes": 9777, "vent": 9778, "imagine": 9779, "fathom": 9780, "inadequate": 9781, "charac@@": 9782, "ize": 9783, "consider": 9784, "ssing": 9785, "shared": 9786, "anyone": 9787, "sufficient": 9788, "omnipotent": 9789, "bene@@": 9790, "perfectly": 9791, "intricate": 9792, "stea@@": 9793, "false": 9794, "pure": 9795, "satisfy": 9796, "perhaps": 9797, "burial": 9798, "reconci@@": 9799, "repetitive": 9800, "sojour@@": 9801, "ner": 9802, "reportin": 9803, "pilgri@@": 9804, "mage": 9805, "tribes": 9806, "villa@@": 9807, "ges": 9808, "revive": 9809, "diligent": 9810, "rival": 9811, "wls": 9812, "roarin": 9813, "defeat": 9814, "mumblin": 9815, "misogy@@": 9816, "sorry": 9817, "abandoned": 9818, "enjoyin": 9819, "father@@": 9820, "stain@@": 9821, "attainable": 9822, "writin": 9823, "atlantic": 9824, "titanic": 9825, "noah": 9826, "babble": 9827, "shallow": 9828, "mir@@": 9829, "sted": 9830, "profound": 9831, "ultra@@": 9832, "vor": 9833, "dishonest": 9834, "previous": 9835, "devi@@": 9836, "immediate": 9837, "zir@@": 9838, "ite": 9839, "shon": 9840, "unkind": 9841, "asinine": 9842, "bra@@": 9843, "ced": 9844, "himself": 9845, "entered": 9846, "vine": 9847, "branches": 9848, "paradigm": 9849, "sublime": 9850, "intertwined": 9851, "liftin": 9852, "receive": 9853, "object": 9854, "affection": 9855, "misery": 9856, "iniquity": 9857, "mysteries": 9858, "perplexed": 9859, "failed": 9860, "transgre@@": 9861, "ssed": 9862, "savin": 9863, "redeemed": 9864, "robes": 9865, "lambs": 9866, "tling": 9867, "itd": 9868, "define": 9869, "une": 9870, "sci@@": 9871, "ruin": 9872, "lawless": 9873, "rescu@@": 9874, "convinced": 9875, "risen": 9876, "surprising": 9877, "magnified": 9878, "expi@@": 9879, "removed": 9880, "thin@@": 9881, "ess": 9882, "testament": 9883, "goat": 9884, "freed": 9885, "slavery": 9886, "piti@@": 9887, "justification": 9888, "decla@@": 9889, "res": 9890, "fication": 9891, "glori@@": 9892, "forms": 9893, "image": 9894, "magnificent": 9895, "slayed": 9896, "repentance": 9897, "benefits": 9898, "trusting": 9899, "clean@@": 9900, "ses": 9901, "ited": 9902, "quote": 9903, "doomed": 9904, "righteousness": 9905, "tation": 9906, "credits": 9907, "suffice": 9908, "possible": 9909, "spreading": 9910, "stages": 9911, "disagree": 9912, "hostile": 9913, "novel": 9914, "secondary": 9915, "essential": 9916, "defend": 9917, "millenni@@": 9918, "intend": 9919, "spiritually": 9920, "infiltrate": 9921, "scrip@@": 9922, "ral": 9923, "passage": 9924, "meditation": 9925, "20th": 9926, "interpretation": 9927, "greatly": 9928, "hin@@": 9929, "dered": 9930, "deceive": 9931, "relation": 9932, "explains": 9933, "beheaded": 9934, "reigns": 9935, "extending": 9936, "whens": 9937, "augu@@": 9938, "rated": 9939, "consu@@": 9940, "mated": 9941, "whove": 9942, "yearn": 9943, "parallel": 9944, "narra@@": 9945, "tives": 9946, "descri@@": 9947, "literal": 9948, "visible": 9949, "comments": 9950, "hum": 9951, "weary": 9952, "neglect": 9953, "remarks": 9954, "captured": 9955, "alaska": 9956, "powerless": 9957, "thesis": 9958, "deepest": 9959, "speechless": 9960, "pieces": 9961, "code@@": 9962, "mus": 9963, "fright": 9964, "phar@@": 9965, "spite": 9966, "nick": 9967, "nite": 9968, "rabb@@": 9969, "regar@@": 9970, "consumed": 9971, "natu@@": 9972, "stically": 9973, "symbolizes": 9974, "puri@@": 9975, "factual": 9976, "supernatural": 9977, "perceive": 9978, "sovereign@@": 9979, "mysterious": 9980, "condem@@": 9981, "reje@@": 9982, "hadnt": 9983, "refuse": 9984, "irresistible": 9985, "exal@@": 9986, "habit@@": 9987, "radical": 9988, "transformation": 9989, "polluted": 9990, "exc@@": 9991, "spu@@": 9992, "ovation": 9993, "cruci@@": 9994, "ble": 9995, "000": 9996, "strategies": 9997, "academy": 9998, "majesty": 9999, "salary": 10000, "match@@": 10001, "afterlife": 10002, "owes": 10003, "bruise": 10004, "sweeter": 10005, "attacked": 10006, "alternative": 10007, "composition": 10008, "proposition": 10009, "fix@@": 10010, "opposition": 10011, "fiction": 10012, "incentive": 10013, "ob@@": 10014, "ste@@": 10015, "cian": 10016, "suspicion": 10017, "fixes": 10018, "supplies": 10019, "diction": 10020, "backdrop": 10021, "dition": 10022, "listens": 10023, "commission": 10024, "background": 10025, "elevator": 10026, "red@@": 10027, "und@@": 10028, "repeat": 10029, "realist": 10030, "states": 10031, "purchased": 10032, "gracious": 10033, "meless": 10034, "synonym": 10035, "fakers": 10036, "fragrance": 10037, "describin": 10038, "opinions": 10039, "rulin": 10040, "infinity": 10041, "tremen@@": 10042, "dou@@": 10043, "endlessly": 10044, "billions": 10045, "existence": 10046, "assistance": 10047, "resistance": 10048, "existed": 10049, "span": 10050, "downs": 10051, "consist@@": 10052, "encies": 10053, "idi@@": 10054, "cra@@": 10055, "relen@@": 10056, "tlessly": 10057, "sanctified": 10058, "we@@": 10059, "ighty": 10060, "unable": 10061, "digest": 10062, "mock": 10063, "inter": 10064, "trin@@": 10065, "arian": 10066, "astonished": 10067, "enjoying": 10068, "embrace": 10069, "eternally": 10070, "bathed": 10071, "equally": 10072, "radi@@": 10073, "ness": 10074, "optics": 10075, "esteem": 10076, "psalm": 10077, "conve@@": 10078, "yed": 10079, "overflow": 10080, "liberate": 10081, "bondage": 10082, "hostages": 10083, "spotless": 10084, "vations": 10085, "accomplished": 10086, "extend": 10087, "corrupted": 10088, "imperfect": 10089, "insta@@": 10090, "lled": 10091, "remin@@": 10092, "blin@@": 10093, "kindness": 10094, "reaches": 10095, "allows": 10096, "traditions": 10097, "reacted": 10098, "explicit": 10099, "isnt": 10100, "restri@@": 10101, "infli@@": 10102, "inclined": 10103, "torment": 10104, "misunderstood": 10105, "aspect": 10106, "towards": 10107, "husband": 10108, "distin@@": 10109, "groom": 10110, "adul@@": 10111, "ous": 10112, "marriage": 10113, "open@@": 10114, "tionless": 10115, "possibly": 10116, "fies": 10117, "hoops": 10118, "lover": 10119, "oblivious": 10120, "discovered": 10121, "haste": 10122, "longs": 10123, "vows": 10124, "minister": 10125, "reception": 10126, "tainted": 10127, "deception": 10128, "hateful": 10129, "faker": 10130, "covenant": 10131, "breaker": 10132, "lity": 10133, "jealousy": 10134, "screams": 10135, "pleas": 10136, "appease": 10137, "pointed": 10138, "clutches": 10139, "bon@@": 10140, "fide": 10141, "inv@@": 10142, "understood": 10143, "th@@": 10144, "unders": 10145, "protects": 10146, "inte@@": 10147, "lli@@": 10148, "gible": 10149, "paints": 10150, "convicts": 10151, "frigh@@": 10152, "tful": 10153, "light@@": 10154, "smirks": 10155, "flirt": 10156, "bothered": 10157, "ido@@": 10158, "with@@": 10159, "replaced": 10160, "loads": 10161, "atrocious": 10162, "paths": 10163, "adultery": 10164, "flies": 10165, "newcomer": 10166, "summers": 10167, "understandin": 10168, "demanded": 10169, "stranded": 10170, "surrounded": 10171, "wear@@": 10172, "sinkin": 10173, "catches": 10174, "everyone": 10175, "risin": 10176, "awe@@": 10177, "jordans": 10178, "speech": 10179, "gasp": 10180, "include": 10181, "mike": 10182, "feared": 10183, "retreat": 10184, "moments": 10185, "punches": 10186, "puffed": 10187, "smu@@": 10188, "gness": 10189, "hm": 10190, "buster": 10191, "douglas": 10192, "craze": 10193, "metro@@": 10194, "praised": 10195, "phase": 10196, "retro@@": 10197, "echoes": 10198, "seriously": 10199, "welcomed": 10200, "experi@@": 10201, "station": 10202, "playlist": 10203, "soundin": 10204, "writ": 10205, "reverend": 10206, "cc@@": 10207, "stes": 10208, "aims": 10209, "banker": 10210, "sinatra": 10211, "timeless": 10212, "defying": 10213, "ast@@": 10214, "ounds": 10215, "zes": 10216, "cages": 10217, "everglades": 10218, "theyve": 10219, "smar@@": 10220, "tness": 10221, "targe@@": 10222, "narcissi@@": 10223, "snare": 10224, "tempting": 10225, "errors": 10226, "corinthians": 10227, "addressing": 10228, "brethren": 10229, "prow@@": 10230, "subtle": 10231, "invisible": 10232, "operate": 10233, "power@@": 10234, "camaraderie": 10235, "tempt": 10236, "sinful": 10237, "suggestion": 10238, "depicted": 10239, "hides": 10240, "priority": 10241, "obe@@": 10242, "dience": 10243, "abuse": 10244, "becomes": 10245, "accus@@": 10246, "principle": 10247, "vulnerable": 10248, "feeble": 10249, "serpents": 10250, "churches": 10251, "pendulum": 10252, "minimize": 10253, "here@@": 10254, "empha@@": 10255, "ists": 10256, "bitterness": 10257, "unfor@@": 10258, "giveness": 10259, "mentions": 10260, "necess@@": 10261, "ities": 10262, "luke": 10263, "frequently": 10264, "spotlight": 10265, "fin@@": 10266, "answer": 10267, "fills": 10268, "dent": 10269, "unlimited": 10270, "exhi@@": 10271, "gover@@": 10272, "undetected": 10273, "stench": 10274, "calculation": 10275, "3@@": 10276, "6000": 10277, "imp@@": 10278, "category": 10279, "haiti": 10280, "greece": 10281, "sweden": 10282, "barbados": 10283, "zea@@": 10284, "thu@@": 10285, "malay@@": 10286, "sia": 10287, "tun@@": 10288, "arabian": 10289, "simultaneously": 10290, "praises": 10291, "almighty": 10292, "whys": 10293, "lightly": 10294, "demonic": 10295, "lyin": 10296, "defiance": 10297, "conqu@@": 10298, "antar@@": 10299, "ctica": 10300, "tribal": 10301, "ple@@": 10302, "ades": 10303, "strate": 10304, "plants": 10305, "animals": 10306, "insects": 10307, "beings": 10308, "ministers": 10309, "languages": 10310, "rivals": 10311, "titles": 10312, "obsession": 10313, "bran@@": 10314, "appeared": 10315, "usin": 10316, "jargon": 10317, "fearful": 10318, "needing": 10319, "territory": 10320, "parted": 10321, "thirst": 10322, "mockin": 10323, "confess": 10324, "atheists": 10325, "llin": 10326, "intimidated": 10327, "puts": 10328, "appro@@": 10329, "ximately": 10330, "cautious": 10331, "execution": 10332, "crosses": 10333, "center": 10334, "closes": 10335, "transaction": 10336, "drowned": 10337, "controlling": 10338, "unfa@@": 10339, "mable": 10340, "judgment": 10341, "willingly": 10342, "scum": 10343, "craziest": 10344, "shadiest": 10345, "atheist": 10346, "fiery": 10347, "desires": 10348, "promi@@": 10349, "scuous": 10350, "mischievous": 10351, "tormented": 10352, "investor": 10353, "stor": 10354, "constru@@": 10355, "mourn": 10356, "laptop": 10357, "religious": 10358, "hypocrites": 10359, "seedy": 10360, "rapist": 10361, "sland@@": 10362, "erer": 10363, "land@@": 10364, "penalized": 10365, "committing": 10366, "demonstrated": 10367, "cated": 10368, "statement": 10369, "clamation": 10370, "obligation": 10371, "domination": 10372, "moderation": 10373, "conversation": 10374, "awakened": 10375, "contribu@@": 10376, "compilation": 10377, "elected": 10378, "confirmation": 10379, "abo@@": 10380, "ations": 10381, "constellations": 10382, "observation": 10383, "congregation": 10384, "tendency": 10385, "tender@@": 10386, "outr@@": 10387, "ight": 10388, "obscen@@": 10389, "ctively": 10390, "pedigree": 10391, "therefore": 10392, "perish": 10393, "lessly": 10394, "assassination": 10395, "kennedy": 10396, "heav@@": 10397, "deleted": 10398, "serenity": 10399, "volunteer": 10400, "essenti@@": 10401, "ally": 10402, "merciful": 10403, "tim": 10404, "immense": 10405, "expense": 10406, "ingredients": 10407, "active": 10408, "baptist": 10409, "delivers": 10410, "shares": 10411, "scandals": 10412, "magnify": 10413, "baptize": 10414, "chastise": 10415, "bapti@@": 10416, "enticing": 10417, "fulfill": 10418, "stures": 10419, "london": 10420, "chester": 10421, "ance@@": 10422, "eden": 10423, "deceived": 10424, "heathens": 10425, "spinning": 10426, "adams": 10427, "descendants": 10428, "sinning": 10429, "werent": 10430, "represented": 10431, "logically": 10432, "criticize": 10433, "comm@@": 10434, "representative": 10435, "addressed": 10436, "jeremiah": 10437, "prophe@@": 10438, "unholy": 10439, "requi@@": 10440, "ception": 10441, "refuge": 10442, "received": 10443, "reverse": 10444, "dingly": 10445, "counts": 10446, "elses": 10447, "plagi@@": 10448, "righteously": 10449, "perks": 10450, "century": 10451, "martyr": 10452, "ridicule": 10453, "lously": 10454, "ridicu@@": 10455, "uscule": 10456, "astounding": 10457, "pounding": 10458, "reminded": 10459, "12@@": 10460, "5th": 10461, "chatter": 10462, "scattered": 10463, "spleen": 10464, "splattered": 10465, "embracing": 10466, "apostle": 10467, "phrase": 10468, "wickedly": 10469, "flowed": 10470, "vividly": 10471, "wardly": 10472, "instrument": 10473, "sustain": 10474, "glorified": 10475, "diabolical": 10476, "psychological": 10477, "obser@@": 10478, "intoxi@@": 10479, "population": 10480, "graves": 10481, "airwaves": 10482, "tunes": 10483, "blasphemous": 10484, "hazardous": 10485, "pacifist": 10486, "bride@@": 10487, "laboratory": 10488, "mandatory": 10489, "owns": 10490, "pointing": 10491, "redee@@": 10492, "wage": 10493, "treachery": 10494, "distant": 10495, "oldest": 10496, "particular": 10497, "anyway": 10498, "penelope": 10499, "jud@@": 10500, "teased": 10501, "acted": 10502, "stole": 10503, "hoped": 10504, "grandpa": 10505, "excited": 10506, "officially": 10507, "delay": 10508, "knapsack": 10509, "waved": 10510, "continued": 10511, "herself": 10512, "steep": 10513, "guide": 10514, "farewell": 10515, "answered": 10516, "frown": 10517, "maam": 10518, "invitation": 10519, "smiled": 10520, "instantly": 10521, "brightest": 10522, "robe": 10523, "whered": 10524, "sang": 10525, "sweetest": 10526, "joyful": 10527, "arra@@": 10528, "splendor": 10529, "defender": 10530, "flaw": 10531, "ures": 10532, "virgin": 10533, "ascended": 10534, "lamest": 10535, "em@@": 10536, "jada": 10537, "dependent": 10538, "preven@@": 10539, "complaint": 10540, "gravy": 10541, "angry": 10542, "avoiding": 10543, "enjoy": 10544, "angelic": 10545, "opened": 10546, "gripped": 10547, "severe": 10548, "disappeared": 10549, "wipe": 10550, "immediately": 10551, "swelling": 10552, "murs": 10553, "persistent": 10554, "loa@@": 10555, "thed": 10556, "occurred": 10557, "crea@@": 10558, "rely": 10559, "cling": 10560, "tempted": 10561, "awaits": 10562, "hospital": 10563, "meds": 10564, "comatose": 10565, "aro@@": 10566, "mas": 10567, "pursued": 10568, "wd": 10569, "frantic": 10570, "seizure": 10571, "leisure": 10572, "anesthe@@": 10573, "temporary": 10574, "amnesia": 10575, "predicament": 10576, "significant": 10577, "crowded": 10578, "persons": 10579, "nurse": 10580, "replies": 10581, "familys": 10582, "upsetting": 10583, "logical": 10584, "comical": 10585, "mytho@@": 10586, "bibles": 10587, "shaken": 10588, "wiggle": 10589, "anticipating": 10590, "seconds": 10591, "dissin": 10592, "courts": 10593, "void": 10594, "abun@@": 10595, "dan@@": 10596, "rational": 10597, "comman@@": 10598, "appalled": 10599, "promote": 10600, "helps": 10601, "philosophy": 10602, "apologetic": 10603, "merely": 10604, "adored": 10605, "lesser": 10606, "distractions": 10607, "spea@@": 10608, "kable": 10609, "wondrous": 10610, "disc@@": 10611, "worldly": 10612, "sincerely": 10613, "rages": 10614, "commun@@": 10615, "communication": 10616, "panoramic": 10617, "ada@@": 10618, "ir@@": 10619, "enlightened": 10620, "studied": 10621, "manifest": 10622, "unified": 10623, "versity": 10624, "immortal": 10625, "mystical": 10626, "portal": 10627, "foun@@": 10628, "dations": 10629, "turpentine": 10630, "perverted": 10631, "redeemer": 10632, "ordained": 10633, "possession": 10634, "exciting": 10635, "110": 10636, "assuming": 10637, "humans": 10638, "recommen@@": 10639, "fea@@": 10640, "tured": 10641, "cha@@": 10642, "emotional": 10643, "persecu@@": 10644, "scenari@@": 10645, "individuals": 10646, "sadly": 10647, "decisions": 10648, "finishing": 10649, "external": 10650, "appearance": 10651, "rougher": 10652, "brillo": 10653, "muffled": 10654, "atro@@": 10655, "cities": 10656, "sodomy": 10657, "tomy": 10658, "adju@@": 10659, "st@@": 10660, "ment": 10661, "stats": 10662, "rot": 10663, "hells": 10664, "weighing": 10665, "adu@@": 10666, "lth@@": 10667, "ood": 10668, "excur@@": 10669, "sions": 10670, "trading": 10671, "unwanted": 10672, "confronted": 10673, "disappearing": 10674, "terry": 10675, "llan": 10676, "aggression": 10677, "grieve": 10678, "mouths": 10679, "healthcare": 10680, "welfare": 10681, "throttle": 10682, "education": 10683, "probable": 10684, "severely": 10685, "afflicted": 10686, "groans": 10687, "strife": 10688, "appear@@": 10689, "predicted": 10690, "clearly": 10691, "appreciation": 10692, "abbrevi@@": 10693, "planned": 10694, "veil": 10695, "consi@@": 10696, "dangling": 10697, "abandonment": 10698, "glorify": 10699, "context": 10700, "complex": 10701, "refused": 10702, "suppre@@": 10703, "wickedness": 10704, "twos": 10705, "swelled": 10706, "humi@@": 10707, "greedy": 10708, "ards": 10709, "storing": 10710, "deed": 10711, "concealed": 10712, "convince": 10713, "itys": 10714, "disper@@": 10715, "worthless": 10716, "vipers": 10717, "deceased": 10718, "zones": 10719, "law@@": 10720, "explanation": 10721, "planets": 10722, "solution": 10723, "manifested": 10724, "belongs": 10725, "frustra@@": 10726, "advers@@": 10727, "ries": 10728, "treats": 10729, "wash": 10730, "classes": 10731, "physics": 10732, "literature": 10733, "seemed": 10734, "ad@@": 10735, "conditioned": 10736, "epit@@": 10737, "unlike": 10738, "qui@@": 10739, "zz@@": 10740, "scription": 10741, "einstein": 10742, "mlk": 10743, "phonics": 10744, "non@@": 10745, "compliance": 10746, "je@@": 10747, "ctive": 10748, "produ@@": 10749, "corre@@": 10750, "fractured": 10751, "perspective": 10752, "pressed": 10753, "nailed": 10754, "content": 10755, "poe": 10756, "monk": 10757, "nun": 10758, "miner": 10759, "minor": 10760, "majestic": 10761, "feast": 10762, "indu@@": 10763, "dissect": 10764, "smothered": 10765, "meditate": 10766, "ignoring": 10767, "logi@@": 10768, "fakeness": 10769, "homi@@": 10770, "wobbly": 10771, "ransom": 10772, "reciting": 10773, "anthems": 10774, "lantern": 10775, "heathen": 10776, "describe": 10777, "miraculous": 10778, "ins@@": 10779, "ights": 10780, "windpipes": 10781, "ponder": 10782, "desert": 10783, "deuteronomy": 10784, "brilliant": 10785, "stra@@": 10786, "gems": 10787, "quen@@": 10788, "kness": 10789, "bubbling": 10790, "ating": 10791, "victorious": 10792, "meaning": 10793, "emperor": 10794, "comfor@@": 10795, "top@@": 10796, "centered": 10797, "analy@@": 10798, "catal@@": 10799, "aver@@": 10800, "activist": 10801, "strategi@@": 10802, "malig@@": 10803, "gon@@": 10804, "defy": 10805, "hippie": 10806, "nished": 10807, "bronze": 10808, "niagara": 10809, "brighter": 10810, "ggers": 10811, "dread": 10812, "deaths": 10813, "claims": 10814, "ku@@": 10815, "ign@@": 10816, "reflect": 10817, "agnostic": 10818, "afrocentric": 10819, "efx": 10820, "christianity": 10821, "oppressed": 10822, "glued": 10823, "pews": 10824, "progress": 10825, "crus@@": 10826, "cr@@": 10827, "tons": 10828, "insu@@": 10829, "fficient": 10830, "antidote": 10831, "pristine": 10832, "presidential": 10833, "2016": 10834, "controls": 10835, "populace": 10836, "rott@@": 10837, "trolls": 10838, "anonymous": 10839, "apocalypse": 10840, "pile": 10841, "sacrificed": 10842, "political": 10843, "democrat": 10844, "republican": 10845, "divided": 10846, "abyss": 10847, "amidst": 10848, "resisting": 10849, "ousness": 10850, "elephant": 10851, "melanin": 10852, "cy": 10853, "failing": 10854, "ver@@": 10855, "down@@": 10856, "ward": 10857, "spiral": 10858, "spur@@": 10859, "donny": 10860, "nonsense": 10861, "wre@@": 10862, "tch": 10863, "secular": 10864, "tuned": 10865, "lt": 10866, "soci@@": 10867, "sheer": 10868, "physician": 10869, "mere": 10870, "speculation": 10871, "investigation": 10872, "ideas": 10873, "medit@@": 10874, "frees": 10875, "regions": 10876, "sajak": 10877, "regis": 10878, "liest": 10879, "carnivore": 10880, "vegans": 10881, "phil": 10882, "opera@@": 10883, "sweepers": 10884, "allegiance": 10885, "pag@@": 10886, "annihi@@": 10887, "lation": 10888, "certifi@@": 10889, "cates": 10890, "avo@@": 10891, "denial": 10892, "net": 10893, "outrageous": 10894, "flagrant": 10895, "lations": 10896, "considering": 10897, "180": 10898, "announced": 10899, "eyesight": 10900, "commissi@@": 10901, "peri@@": 10902, "inherit": 10903, "reject": 10904, "preten@@": 10905, "thered": 10906, "clinic": 10907, "pointless": 10908, "bystanders": 10909, "brutal": 10910, "wives": 10911, "commit": 10912, "strain": 10913, "dis": 10914, "confront": 10915, "tissue": 10916, "politicians": 10917, "slit": 10918, "votes": 10919, "boats": 10920, "quotes": 10921, "jacker": 10922, "linebacker": 10923, "factor": 10924, "tomorrows": 10925, "actor": 10926, "dull": 10927, "alley": 10928, "llied": 10929, "influence": 10930, "flu@@": 10931, "darkened": 10932, "protected": 10933, "area": 10934, "authorities": 10935, "mums": 10936, "orities": 10937, "conspiracy": 10938, "theories": 10939, "eerie": 10940, "frying": 10941, "drain": 10942, "devious": 10943, "dismiss": 10944, "misled": 10945, "diverse": 10946, "ice@@": 10947, "bergs": 10948, "tornadoes": 10949, "lizards": 10950, "flamin@@": 10951, "gos": 10952, "differences": 10953, "accidents": 10954, "yup": 10955, "snowflakes": 10956, "hairs": 10957, "eth@@": 10958, "wonder@@": 10959, "gathered": 10960, "tribe": 10961, "thanking": 10962, "fear@@": 10963, "valued": 10964, "disciples": 10965, "condu@@": 10966, "instructions": 10967, "conquering": 10968, "fore@@": 10969, "proclaimed": 10970, "ablaze": 10971, "approached": 10972, "ancient": 10973, "stadiums": 10974, "deserved": 10975, "task": 10976, "aton@@": 10977, "seated": 10978, "steadily": 10979, "defea@@": 10980, "applying": 10981, "tend": 10982, "ep@@": 10983, "extended": 10984, "allow": 10985, "dew": 10986, "roughest": 10987, "guaran@@": 10988, "conceive": 10989, "hea@@": 10990, "priest": 10991, "retribution": 10992, "electro@@": 10993, "scores": 10994, "morbid": 10995, "brook": 10996, "gi@@": 10997, "lon@@": 10998, "hideous": 10999, "closure": 11000, "warrior": 11001, "worshipping": 11002, "exhausted": 11003, "gather": 11004, "moses": 11005, "samuel": 11006, "isaac": 11007, "shua": 11008, "herds": 11009, "fruit@@": 11010, "multiply": 11011, "tree": 11012, "forbidden": 11013, "sarah": 11014, "laughed": 11015, "kah": 11016, "encoura@@": 11017, "crafts": 11018, "staff": 11019, "sinned": 11020, "sickness": 11021, "compassion": 11022, "healed": 11023, "quickness": 11024, "lessons": 11025, "babysitter": 11026, "hinder": 11027, "humbly": 11028, "donkey": 11029, "highest": 11030, "adults": 11031, "infants": 11032, "nursing": 11033, "bother": 11034, "diseases": 11035, "havent": 11036, "eaten": 11037, "full@@": 11038, "lea@@": 11039, "scholarship": 11040, "sophomore": 11041, "conference": 11042, "tournament": 11043, "jims": 11044, "spects": 11045, "stem": 11046, "trim": 11047, "melody": 11048, "deca@@": 11049, "harmony": 11050, "epiphany": 11051, "whim": 11052, "faithfully": 11053, "pinnacle": 11054, "memo@@": 11055, "irs": 11056, "transformed": 11057, "yesterdays": 11058, "sorrow": 11059, "horizon": 11060, "ww": 11061, "helpless": 11062, "cellar": 11063, "nelson": 11064, "mandela": 11065, "mackin": 11066, "coffee": 11067, "ferred": 11068, "unfold": 11069, "responsibility": 11070, "goodness": 11071, "stuntman": 11072, "devout": 11073, "lifting": 11074, "timothy": 11075, "brin@@": 11076, "dle": 11077, "las": 11078, "corruption": 11079, "seeks": 11080, "hates": 11081, "godless": 11082, "constant": 11083, "pompous": 11084, "contradi@@": 11085, "ctory": 11086, "slaying": 11087, "endeavor": 11088, "za@@": 11089, "sp@@": 11090, "rede@@": 11091, "mp@@": 11092, "tive": 11093, "contribution": 11094, "ables": 11095, "conclusion": 11096, "phia": 11097, "deli@@": 11098, "ack@@": 11099, "davis": 11100, "cruz": 11101, "exodus": 11102, "iti@@": 11103, "cus": 11104, "ra": 11105, "miah": 11106, "ther": 11107, "joel": 11108, "amos": 11109, "gga@@": 11110, "chari@@": 11111, "mala@@": 11112, "tians": 11113, "colo@@": 11114, "the@@": 11115, "ssa@@": 11116, "tit@@": 11117, "brews": 11118, "contemplating": 11119, "unseen": 11120, "forces": 11121, "cliche": 11122, "ab@@": 11123, "sentee": 11124, "yonder": 11125, "trauma": 11126, "alas": 11127, "however": 11128, "severed": 11129, "separately": 11130, "cartoons": 11131, "cheerios": 11132, "visit@@": 11133, "limitations": 11134, "adolescent": 11135, "sessions": 11136, "laughter": 11137, "practical": 11138, "guessing": 11139, "silently": 11140, "relating": 11141, "ben": 11142, "een": 11143, "wishing": 11144, "forgave": 11145, "clearer": 11146, "nearer": 11147, "staring": 11148, "toge@@": 11149, "thers": 11150, "funerals": 11151, "numerals": 11152, "grandfather": 11153, "guilt": 11154, "payment": 11155, "lty": 11156, "failures": 11157, "www": 11158, "archives": 11159, "steering": 11160, "americas": 11161, "yahoo": 11162, "hot@@": 11163, "despised": 11164, "ckin": 11165, "delete": 11166, "button": 11167, "absurd": 11168, "concerning": 11169, "versions": 11170, "slider": 11171, "lamp@@": 11172, "rock@@": 11173, "fortress": 11174, "bul@@": 11175, "wark": 11176, "helper": 11177, "mortal": 11178, "ills": 11179, "preva@@": 11180, "iling": 11181, "woe": 11182, "confide": 11183, "losing": 11184, "threaten": 11185, "undo": 11186, "triumph": 11187, "tremble": 11188, "earthly": 11189, "abi@@": 11190, "goods": 11191, "kin@@": 11192, "antly": 11193, "ping": 11194, "mista@@": 11195, "bly": 11196, "contemplatin": 11197, "sober@@": 11198, "filth": 11199, "tearin": 11200, "defenses": 11201, "fable": 11202, "capable": 11203, "subdue": 11204, "otherwise": 11205, "fooli@@": 11206, "shly": 11207, "diminish": 11208, "blemish": 11209, "tasted": 11210, "painfully": 11211, "whipped": 11212, "movies": 11213, "entertain": 11214, "nightly": 11215, "january": 11216, "december": 11217, "destru@@": 11218, "exaggerate": 11219, "actu@@": 11220, "magnitude": 11221, "wondering": 11222, "shoutin": 11223, "hosti@@": 11224, "lities": 11225, "abilities": 11226, "chap@@": 11227, "reactin": 11228, "cherished": 11229, "arrogance": 11230, "embarrassment": 11231, "lf": 11232, "anti@@": 11233, "follies": 11234, "resign": 11235, "tis": 11236, "brow": 11237, "compromise": 11238, "caller": 11239, "approaches": 11240, "doms": 11241, "formation": 11242, "lessness": 11243, "acknowledged": 11244, "koran": 11245, "islamic": 11246, "ham@@": 11247, "hiphop": 11248, "medium": 11249, "et@@": 11250, "you@@": 11251, "wheat": 11252, "disguised": 11253, "sermons": 11254, "diana": 11255, "congre@@": 11256, "gations": 11257, "justify": 11258, "forreal": 11259, "plu@@": 11260, "gging": 11261, "chords": 11262, "plex@@": 11263, "reverends": 11264, "whom@@": 11265, "hu@@": 11266, "mani@@": 11267, "fundamental": 11268, "heavier": 11269, "trillion": 11270, "suns": 11271, "mastered": 11272, "oxy@@": 11273, "cle@@": 11274, "ic": 11275, "snowflake": 11276, "pattern": 11277, "telescope": 11278, "microscope": 11279, "choirs": 11280, "francisco": 11281, "disguises": 11282, "surprises": 11283, "begins": 11284, "collected": 11285, "lotta": 11286, "claps": 11287, "class@@": 11288, "whore": 11289, "passionate": 11290, "heights": 11291, "pastors": 11292, "credentials": 11293, "deacons": 11294, "reaching": 11295, "pos@@": 11296, "ory": 11297, "whit@@": 11298, "fields": 11299, "geons": 11300, "application": 11301, "determine": 11302, "delivered": 11303, "realities": 11304, "relying": 11305, "personality": 11306, "replacement": 11307, "profit": 11308, "slope": 11309, "itors": 11310, "shepher@@": 11311, "preached": 11312, "builds": 11313, "community": 11314, "supplement": 11315, "ction": 11316, "production": 11317, "theatrics": 11318, "brink": 11319, "stly": 11320, "mind@@": 11321, "boldly": 11322, "teachings": 11323, "ultimately": 11324, "roads": 11325, "gol@@": 11326, "fai@@": 11327, "fulness": 11328, "coun@@": 11329, "sel": 11330, "tells": 11331, "resources": 11332, "az@@": 11333, "dia": 11334, "chapel": 11335, "supremacy": 11336, "piper": 11337, "tenta@@": 11338, "tively": 11339, "menace": 11340, "admittin": 11341, "spitted": 11342, "af@@": 11343, "learnin": 11344, "spellin": 11345, "pony": 11346, "my@@": 11347, "fax": 11348, "centipede": 11349, "cera@@": 11350, "thrashin": 11351, "kraken": 11352, "lackin": 11353, "crackle": 11354, "flan@@": 11355, "nels": 11356, "peddle": 11357, "rake": 11358, "pennies": 11359, "deso@@": 11360, "testaments": 11361, "jekyll": 11362, "hyde": 11363, "brenda": 11364, "pregnant": 11365, "lakers": 11366, "pyramid": 11367, "serum": 11368, "reappear": 11369, "bear@@": 11370, "lear": 11371, "provider": 11372, "mascot": 11373, "wer": 11374, "skinned": 11375, "sali@@": 11376, "matchbox": 11377, "badder": 11378, "nimble": 11379, "rick@@": 11380, "blower": 11381, "pillage": 11382, "sinister": 11383, "degenerate": 11384, "turf": 11385, "immigrants": 11386, "stitched": 11387, "psyche": 11388, "fatherless": 11389, "jest": 11390, "into@@": 11391, "pissy": 11392, "pissing": 11393, "moder@@": 11394, "offering": 11395, "offerings": 11396, "cough": 11397, "sco@@": 11398, "ffing": 11399, "mice": 11400, "blacks": 11401, "cracking": 11402, "bicycle": 11403, "indecisive": 11404, "sca@@": 11405, "tter@@": 11406, "frightened": 11407, "icicles": 11408, "lapse": 11409, "96": 11410, "prodigy": 11411, "tt@@": 11412, "belongings": 11413, "audience": 11414, "vince": 11415, "cartilage": 11416, "garment": 11417, "garden@@": 11418, "particles": 11419, "entering": 11420, "article": 11421, "tolerance": 11422, "boundaries": 11423, "ven": 11424, "grateful": 11425, "strained": 11426, "tigh@@": 11427, "tened": 11428, "quits": 11429, "offend": 11430, "missive": 11431, "drifting": 11432, "complaining": 11433, "vomit": 11434, "salty": 11435, "studded": 11436, "stumble": 11437, "chug": 11438, "dimmer": 11439, "nightmares": 11440, "astronaut": 11441, "crashing": 11442, "jacking": 11443, "buffer@@": 11444, "asher": 11445, "roth": 11446, "poke": 11447, "catholics": 11448, "saws": 11449, "cattle": 11450, "plastered": 11451, "attic": 11452, "addicts": 11453, "plastic": 11454, "mixes": 11455, "scat": 11456, "bbles": 11457, "catfish": 11458, "pha@@": 11459, "dous": 11460, "puke": 11461, "actors": 11462, "axe": 11463, "satchel": 11464, "capsules": 11465, "dizzy": 11466, "rascal": 11467, "baffled": 11468, "butts": 11469, "sluts": 11470, "uppercut": 11471, "buttercup": 11472, "shove": 11473, "trumpet": 11474, "invade": 11475, "rum@@": 11476, "ruptured": 11477, "cunt": 11478, "mustard": 11479, "nosey": 11480, "bouncers": 11481, "dope@@": 11482, "auctioned": 11483, "papas": 11484, "grief": 11485, "reaping": 11486, "sowed": 11487, "booked": 11488, "fishy": 11489, "hooks": 11490, "dragons": 11491, "thel": 11492, "gavel": 11493, "panicking": 11494, "scrambling": 11495, "xanax": 11496, "ister": 11497, "damaging": 11498, "bir@@": 11499, "lawnmower": 11500, "flee@@": 11501, "longest": 11502, "grandmama": 11503, "wallow": 11504, "intact": 11505, "smart@@": 11506, "mou@@": 11507, "witted": 11508, "picked": 11509, "hass@@": 11510, "snapple": 11511, "snappin": 11512, "tallaha@@": 11513, "ss": 11514, "cataracts": 11515, "farmer": 11516, "mil@@": 11517, "nipple": 11518, "squeezin": 11519, "sniffle": 11520, "pts": 11521, "daw@@": 11522, "creek": 11523, "gills": 11524, "floa@@": 11525, "boastin": 11526, "naggin": 11527, "flowin": 11528, "competitions": 11529, "wrists": 11530, "dracula": 11531, "acura": 11532, "heather": 11533, "feathers": 11534, "squadron": 11535, "sergeant": 11536, "autumn": 11537, "pothole": 11538, "mommas": 11539, "anos": 11540, "swamp": 11541, "fox@@": 11542, "thal": 11543, "bronco": 11544, "stumbled": 11545, "vatos": 11546, "dusted": 11547, "throbbing": 11548, "cabinet": 11549, "logo": 11550, "aug@@": 11551, "mented": 11552, "slightly": 11553, "chipped": 11554, "stitches": 11555, "ruths": 11556, "hid": 11557, "shroom": 11558, "lionel": 11559, "leonardo": 11560, "maui": 11561, "scenic": 11562, "weeded": 11563, "coughing": 11564, "buli@@": 11565, "fing": 11566, "doggy": 11567, "tee@@": 11568, "monitor": 11569, "thermometer": 11570, "cow@@": 11571, "fro": 11572, "sided": 11573, "villian": 11574, "tinted": 11575, "trash@@": 11576, "pint": 11577, "basket": 11578, "ashin": 11579, "harra@@": 11580, "ssin": 11581, "tagged": 11582, "menthol": 11583, "paws": 11584, "bitchll": 11585, "residuals": 11586, "blaring": 11587, "gil": 11588, "err@@": 11589, "ussy": 11590, "pouch": 11591, "preme": 11592, "tossing": 11593, "moon@@": 11594, "optional": 11595, "abdominal": 11596, "baggies": 11597, "peanut": 11598, "carnival": 11599, "stomping": 11600, "clowns": 11601, "mper": 11602, "buck@@": 11603, "shotll": 11604, "duke": 11605, "cousins": 11606, "stiff": 11607, "amok": 11608, "paved": 11609, "cement": 11610, "sled": 11611, "pe": 11612, "bin@@": 11613, "headshots": 11614, "civic": 11615, "evi@@": 11616, "mississippi": 11617, "courtesy": 11618, "vincent": 11619, "weigh@@": 11620, "eigh@@": 11621, "caking": 11622, "sailor": 11623, "assa@@": 11624, "il@@": 11625, "hike": 11626, "gun@@": 11627, "duffel": 11628, "rattle": 11629, "mazda": 11630, "ragged": 11631, "contra": 11632, "roadside": 11633, "thumb": 11634, "gag": 11635, "gum": 11636, "madi@@": 11637, "puppy": 11638, "gar": 11639, "chea": 11640, "bies": 11641, "baker": 11642, "freckles": 11643, "telly": 11644, "deli": 11645, "scheming": 11646, "fanta": 11647, "saddle": 11648, "pan@@": 11649, "flights": 11650, "transa@@": 11651, "tlan@@": 11652, "rice": 11653, "patties": 11654, "chan@@": 11655, "cel@@": 11656, "lor": 11657, "snap@@": 11658, "clad": 11659, "baddies": 11660, "lice": 11661, "initially": 11662, "rental": 11663, "sweaty": 11664, "brai@@": 11665, "faculty": 11666, "pressin": 11667, "wards": 11668, "dier": 11669, "washing": 11670, "mammal": 11671, "ked": 11672, "disobe@@": 11673, "prescribe": 11674, "rabbits": 11675, "faucet": 11676, "races": 11677, "thread": 11678, "bred": 11679, "fluent": 11680, "brawler": 11681, "den": 11682, "bumps": 11683, "finance": 11684, "artillery": 11685, "dodging": 11686, "ari@@": 11687, "crat": 11688, "slaps": 11689, "mp": 11690, "sess": 11691, "services": 11692, "esco@@": 11693, "barbarian": 11694, "lawyers": 11695, "aryan": 11696, "dealt": 11697, "pale": 11698, "grin": 11699, "twists": 11700, "sunlight": 11701, "bimmer": 11702, "pigeon": 11703, "jack@@": 11704, "rooms": 11705, "invented": 11706, "cha": 11707, "stanky": 11708, "hound": 11709, "ggle": 11710, "trousers": 11711, "cleaver": 11712, "crimson": 11713, "violins": 11714, "depend": 11715, "nighttime": 11716, "ffled": 11717, "greeted": 11718, "yawn": 11719, "paused": 11720, "bacon": 11721, "simpson": 11722, "attended": 11723, "ended": 11724, "harsh": 11725, "stalking": 11726, "myspace": 11727, "sloppy": 11728, "lamps": 11729, "rushing": 11730, "rabid": 11731, "labrador": 11732, "stores": 11733, "switchblade": 11734, "sharpened": 11735, "carton": 11736, "obje@@": 11737, "spree": 11738, "tomb@@": 11739, "intercep@@": 11740, "whi@@": 11741, "defenseless": 11742, "hugged": 11743, "cleanse": 11744, "binge": 11745, "magicians": 11746, "britches": 11747, "balancing": 11748, "sala@@": 11749, "balcony": 11750, "tchy": 11751, "chivalry": 11752, "20s": 11753, "spotlights": 11754, "whining": 11755, "peakin": 11756, "dna": 11757, "rex": 11758, "bumping": 11759, "bedrock": 11760, "thumping": 11761, "intervention": 11762, "attend": 11763, "riddick": 11764, "bows": 11765, "sprin@@": 11766, "cruising": 11767, "hoo@@": 11768, "bruises": 11769, "swerved": 11770, "arent": 11771, "officer": 11772, "starting": 11773, "backup": 11774, "humming@@": 11775, "hunting": 11776, "crumpets": 11777, "strict": 11778, "crop": 11779, "crushin": 11780, "jar": 11781, "spat": 11782, "warriors": 11783, "dads": 11784, "bastards": 11785, "kiest": 11786, "track@@": 11787, "reviews": 11788, "comfy": 11789, "gluteus": 11790, "maximus": 11791, "accident": 11792, "debates": 11793, "jade": 11794, "vacation": 11795, "hotel": 11796, "bates": 11797, "eighth": 11798, "wears": 11799, "eras@@": 11800, "saiyan": 11801, "puss": 11802, "decayin": 11803, "amateur": 11804, "threesome": 11805, "hannah": 11806, "manager": 11807, "miley": 11808, "sandwiches": 11809, "stamina": 11810, "santas": 11811, "backs": 11812, "mpin": 11813, "airport": 11814, "handlers": 11815, "que@@": 11816, "damag@@": 11817, "complainin": 11818, "ach@@": 11819, "taped": 11820, "bate": 11821, "sher": 11822, "moo": 11823, "motor@@": 11824, "tyson": 11825, "sp": 11826, "icin": 11827, "barbara": 11828, "stre@@": 11829, "pervert": 11830, "weep": 11831, "silenced": 11832, "grimey": 11833, "toddlers": 11834, "arsenal": 11835, "ram": 11836, "rammin": 11837, "limbs": 11838, "axes": 11839, "anton@@": 11840, "damages": 11841, "shovin": 11842, "daggers": 11843, "jessica": 11844, "plannin": 11845, "anal": 11846, "intestines": 11847, "erect": 11848, "nationwide": 11849, "merch": 11850, "paisley": 11851, "mcgra@@": 11852, "dys": 11853, "grader": 11854, "receipts": 11855, "jer@@": 11856, "shanks": 11857, "purses": 11858, "evening": 11859, "lim@@": 11860, "iting": 11861, "shre@@": 11862, "matches": 11863, "lip@@": 11864, "pig@@": 11865, "gies": 11866, "meat": 11867, "fingertips": 11868, "tapers": 11869, "packaging": 11870, "patterns": 11871, "patty": 11872, "mannequins": 11873, "slacking": 11874, "arriving": 11875, "attractive": 11876, "panic": 11877, "fatter": 11878, "butch": 11879, "ankles": 11880, "ante": 11881, "chy": 11882, "ferragamo": 11883, "py": 11884, "toucan": 11885, "quicksand": 11886, "knit": 11887, "rugby": 11888, "delan@@": 11889, "cey": 11890, "reek": 11891, "wins": 11892, "rub": 11893, "colt": 11894, "toasted": 11895, "jot": 11896, "anemic": 11897, "sentiment": 11898, "bbling": 11899, "fixin": 11900, "joggin": 11901, "rainin": 11902, "monsoon": 11903, "doubts": 11904, "partna": 11905, "wron@@": 11906, "gest": 11907, "waits": 11908, "treatin": 11909, "offi@@": 11910, "drinkers": 11911, "see@@": 11912, "leakin": 11913, "bridge": 11914, "desi@@": 11915, "abort": 11916, "forcin": 11917, "ridd@@": 11918, "decor": 11919, "ribbit": 11920, "ribbons": 11921, "winners": 11922, "crunch": 11923, "midsummer": 11924, "stroll": 11925, "grudge": 11926, "cus@@": 11927, "reminder": 11928, "depressed": 11929, "refine": 11930, "wits": 11931, "med": 11932, "brodie": 11933, "noose": 11934, "surve@@": 11935, "llers": 11936, "toll": 11937, "plated": 11938, "adjourned": 11939, "saucy": 11940, "hinge": 11941, "endor@@": 11942, "porcelain": 11943, "clenched": 11944, "olympics": 11945, "cating": 11946, "saturated": 11947, "cranium": 11948, "insurance": 11949, "spanking": 11950, "hazy": 11951, "raking": 11952, "available": 11953, "normally": 11954, "shhh": 11955, "former": 11956, "soloist": 11957, "token": 11958, "kos": 11959, "useless": 11960, "poultry": 11961, "resu@@": 11962, "lting": 11963, "bowling": 11964, "troll": 11965, "mol@@": 11966, "donut": 11967, "cronies": 11968, "ritalin": 11969, "temper": 11970, "tantrums": 11971, "sweeping": 11972, "nish": 11973, "tacks": 11974, "damaged": 11975, "limping": 11976, "barn": 11977, "chicken@@": 11978, "picket": 11979, "ine@@": 11980, "tiptoein": 11981, "40s": 11982, "enterprise": 11983, "evidently": 11984, "rented": 11985, "pilin": 11986, "flask": 11987, "scramblin": 11988, "fares": 11989, "steri@@": 11990, "lize": 11991, "paralyze": 11992, "tappin": 11993, "savion": 11994, "cre@@": 11995, "ashtray": 11996, "eses": 11997, "barrio": 11998, "huff": 11999, "clothing": 12000, "articles": 12001, "nacle": 12002, "dios": 12003, "utical": 12004, "demolish": 12005, "harve@@": 12006, "ramen": 12007, "jaded": 12008, "confir@@": 12009, "gled": 12010, "spoon": 12011, "cantalou@@": 12012, "pes": 12013, "granite": 12014, "mes": 12015, "tracking": 12016, "attacking": 12017, "sweaters": 12018, "aftermath": 12019, "proves": 12020, "smoother": 12021, "relax@@": 12022, "jabber": 12023, "dancer": 12024, "kidna@@": 12025, "regiment": 12026, "swasti@@": 12027, "kas": 12028, "senior": 12029, "bumbaclot": 12030, "touching": 12031, "shee@@": 12032, "ampu@@": 12033, "sweat@@": 12034, "acrobat": 12035, "camels": 12036, "motive": 12037, "mbled": 12038, "stroller": 12039, "beefin": 12040, "cheesing": 12041, "handing": 12042, "jogging": 12043, "bases": 12044, "pitches": 12045, "separated": 12046, "raz@@": 12047, "maple": 12048, "leaf": 12049, "adjacent": 12050, "berries": 12051, "errands": 12052, "sheriff": 12053, "chairs": 12054, "privileged": 12055, "tur@@": 12056, "dless": 12057, "coon": 12058, "ack": 12059, "mecca": 12060, "fubu": 12061, "mu": 12062, "zack": 12063, "hint": 12064, "tint": 12065, "sits": 12066, "ker": 12067, "tying": 12068, "vico@@": 12069, "provo@@": 12070, "bitin": 12071, "caps": 12072, "una": 12073, "figur@@": 12074, "mimic": 12075, "cul": 12076, "sacs": 12077, "poker": 12078, "smoker": 12079, "emotion": 12080, "jab": 12081, "dries": 12082, "acquire": 12083, "naming": 12084, "whyd": 12085, "evict": 12086, "flashin": 12087, "fondle": 12088, "glee": 12089, "ominous": 12090, "harden": 12091, "guarding": 12092, "followers": 12093, "consequ@@": 12094, "ently": 12095, "canteen": 12096, "innocence": 12097, "ahki": 12098, "pendleton": 12099, "warm": 12100, "doobie": 12101, "morgue": 12102, "fishing": 12103, "macabre": 12104, "dukes": 12105, "depending": 12106, "shimmer@@": 12107, "cognitive": 12108, "restored": 12109, "anymore": 12110, "results": 12111, "barrel": 12112, "sparrow": 12113, "rowed": 12114, "flowers": 12115, "bloom": 12116, "rier": 12117, "50000": 12118, "foo@@": 12119, "som": 12120, "ddle": 12121, "ammun@@": 12122, "itions": 12123, "oy": 12124, "vey": 12125, "kie": 12126, "offended": 12127, "folding": 12128, "goalie": 12129, "puck": 12130, "hunnids": 12131, "scorned": 12132, "substances": 12133, "ddles": 12134, "slugger": 12135, "bluffin": 12136, "tussle": 12137, "wing": 12138, "muffle": 12139, "muzzle": 12140, "chuck": 12141, "corny": 12142, "curvy": 12143, "shirley": 12144, "rentals": 12145, "owners": 12146, "perman@@": 12147, "urn": 12148, "mits": 12149, "tin@@": 12150, "brass": 12151, "boyfriend": 12152, "training": 12153, "charming": 12154, "crou@@": 12155, "anus": 12156, "sleet": 12157, "moccasins": 12158, "stalk": 12159, "lar@@": 12160, "mont": 12161, "chopping": 12162, "gna@@": 12163, "clockin": 12164, "cardig@@": 12165, "rubbers": 12166, "stutter": 12167, "woo": 12168, "moonshine": 12169, "jew": 12170, "yoo": 12171, "hoo": 12172, "ture": 12173, "lube": 12174, "shiny": 12175, "fired": 12176, "excursion": 12177, "immature": 12178, "nurses": 12179, "gloves": 12180, "siamese": 12181, "nicely": 12182, "hype@@": 12183, "sue": 12184, "medio@@": 12185, "crity": 12186, "dilla": 12187, "jewelery": 12188, "critic": 12189, "sake": 12190, "revisit": 12191, "pads": 12192, "brea@@": 12193, "labor@@": 12194, "loop": 12195, "tain@@": 12196, "salmon": 12197, "dder": 12198, "swings": 12199, "snapping": 12200, "shutter": 12201, "pucker": 12202, "winter@@": 12203, "deposit": 12204, "dge@@": 12205, "strea@@": 12206, "iny": 12207, "plain@@": 12208, "normal": 12209, "tonights": 12210, "recital": 12211, "danced": 12212, "moonlight": 12213, "crest": 12214, "loathing": 12215, "narcissist": 12216, "crow@@": 12217, "klon@@": 12218, "opin": 12219, "moni@@": 12220, "arson@@": 12221, "prodigal": 12222, "splin@@": 12223, "ornery": 12224, "rhin@@": 12225, "cer@@": 12226, "gger": 12227, "darker": 12228, "gotham": 12229, "genre": 12230, "imposters": 12231, "nada": 12232, "volatile": 12233, "parliament": 12234, "targeted": 12235, "markers": 12236, "jocks": 12237, "28s": 12238, "drool": 12239, "aluminum": 12240, "alls": 12241, "mba@@": 12242, "gouda": 12243, "glu@@": 12244, "pigeons": 12245, "poop": 12246, "ou@@": 12247, "mucus": 12248, "alpha": 12249, "looser": 12250, "losers": 12251, "pumas": 12252, "rejected": 12253, "reasoning": 12254, "tasteless": 12255, "seasoning": 12256, "reference": 12257, "stand@@": 12258, "dized": 12259, "develo@@": 12260, "arrested": 12261, "rece@@": 12262, "superior": 12263, "cardiac": 12264, "emcees": 12265, "alter": 12266, "egos": 12267, "lingual": 12268, "twinkle": 12269, "grandmothers": 12270, "wrinkles": 12271, "spira@@": 12272, "thinner": 12273, "combat": 12274, "overheard": 12275, "brimstone": 12276, "drenched": 12277, "rosary": 12278, "grocery": 12279, "downers": 12280, "lounging": 12281, "require": 12282, "evade": 12283, "tiny": 12284, "sleepy": 12285, "weaving": 12286, "dispo@@": 12287, "sition": 12288, "followin": 12289, "mings": 12290, "cliffs": 12291, "envy": 12292, "riddles": 12293, "makeshift": 12294, "ripples": 12295, "slither": 12296, "shabby": 12297, "popeye": 12298, "anchor": 12299, "spinach": 12300, "spazz": 12301, "takers": 12302, "debris": 12303, "sails": 12304, "brea": 12305, "balance": 12306, "shortly": 12307, "collide": 12308, "owed": 12309, "preci@@": 12310, "harry": 12311, "ras": 12312, "spirited": 12313, "beefs": 12314, "booths": 12315, "thickest": 12316, "roses": 12317, "pistons": 12318, "sheed": 12319, "chauncey": 12320, "drivin": 12321, "llo@@": 12322, "ane": 12323, "burped": 12324, "domain": 12325, "97": 12326, "knotty": 12327, "xan": 12328, "relocate": 12329, "bada": 12330, "bam": 12331, "puppet": 12332, "landlord": 12333, "dickies": 12334, "jan@@": 12335, "trades": 12336, "mantle": 12337, "handsome": 12338, "willy": 12339, "taxed": 12340, "starve": 12341, "lam": 12342, "nephew": 12343, "zooted": 12344, "aways": 12345, "fle@@": 12346, "hugh": 12347, "demi@@": 12348, "bble@@": 12349, "chatter@@": 12350, "flappin": 12351, "setbacks": 12352, "steph": 12353, "losses": 12354, "opposites": 12355, "opul@@": 12356, "mblin": 12357, "dug": 12358, "lligan": 12359, "merrier": 12360, "rious": 12361, "melting": 12362, "lifts": 12363, "stro@@": 12364, "gan@@": 12365, "flooded": 12366, "touchin": 12367, "accounts": 12368, "cook@@": 12369, "ge": 12370, "echelon": 12371, "fr@@": 12372, "itter": 12373, "quiver": 12374, "launch": 12375, "gli@@": 12376, "nings": 12377, "potty": 12378, "naughty": 12379, "snotty": 12380, "campaign": 12381, "bans": 12382, "ere@@": 12383, "shh": 12384, "flexible": 12385, "bisexual": 12386, "perplex@@": 12387, "adolescents": 12388, "patients": 12389, "sb": 12390, "whooped": 12391, "annihilate": 12392, "aga@@": 12393, "ssi": 12394, "catastro@@": 12395, "hun": 12396, "casualties": 12397, "cheek": 12398, "brainiac": 12399, "zani@@": 12400, "est": 12401, "doz": 12402, "afloat": 12403, "grapev@@": 12404, "hiss": 12405, "falla@@": 12406, "cies": 12407, "gathering": 12408, "rememb@@": 12409, "galax@@": 12410, "crumbling": 12411, "weaves": 12412, "sley": 12413, "blistering": 12414, "flung": 12415, "soli@@": 12416, "easel": 12417, "regal": 12418, "slight": 12419, "trick@@": 12420, "fond": 12421, "reformed": 12422, "wata": 12423, "pisc@@": 12424, "ean": 12425, "eclipse": 12426, "lids": 12427, "pokin": 12428, "culinary": 12429,
[...]
